#ifndef BBGT_MODEL_H
#define BBGT_MODEL_H


unsigned int bbgt_model_len = 11920;
unsigned char bbgt_model[] = {
 0x1c, 0x00, 0x00, 0x00, 0x54, 0x46, 0x4c, 0x33, 0x14, 0x00, 0x20, 0x00,
  0x1c, 0x00, 0x18, 0x00, 0x14, 0x00, 0x10, 0x00, 0x0c, 0x00, 0x00, 0x00,
  0x08, 0x00, 0x04, 0x00, 0x14, 0x00, 0x00, 0x00, 0x1c, 0x00, 0x00, 0x00,
  0x88, 0x00, 0x00, 0x00, 0xe0, 0x00, 0x00, 0x00, 0x78, 0x23, 0x00, 0x00,
  0x88, 0x23, 0x00, 0x00, 0xfc, 0x2d, 0x00, 0x00, 0x03, 0x00, 0x00, 0x00,
  0x01, 0x00, 0x00, 0x00, 0x04, 0x00, 0x00, 0x00, 0x7e, 0xdb, 0xff, 0xff,
  0x0c, 0x00, 0x00, 0x00, 0x1c, 0x00, 0x00, 0x00, 0x38, 0x00, 0x00, 0x00,
  0x0f, 0x00, 0x00, 0x00, 0x73, 0x65, 0x72, 0x76, 0x69, 0x6e, 0x67, 0x5f,
  0x64, 0x65, 0x66, 0x61, 0x75, 0x6c, 0x74, 0x00, 0x01, 0x00, 0x00, 0x00,
  0x04, 0x00, 0x00, 0x00, 0x94, 0xff, 0xff, 0xff, 0x11, 0x00, 0x00, 0x00,
  0x04, 0x00, 0x00, 0x00, 0x07, 0x00, 0x00, 0x00, 0x64, 0x65, 0x6e, 0x73,
  0x65, 0x5f, 0x31, 0x00, 0x01, 0x00, 0x00, 0x00, 0x04, 0x00, 0x00, 0x00,
  0x5e, 0xdc, 0xff, 0xff, 0x04, 0x00, 0x00, 0x00, 0x0c, 0x00, 0x00, 0x00,
  0x63, 0x6f, 0x6e, 0x76, 0x32, 0x64, 0x5f, 0x69, 0x6e, 0x70, 0x75, 0x74,
  0x00, 0x00, 0x00, 0x00, 0x02, 0x00, 0x00, 0x00, 0x34, 0x00, 0x00, 0x00,
  0x04, 0x00, 0x00, 0x00, 0xdc, 0xff, 0xff, 0xff, 0x14, 0x00, 0x00, 0x00,
  0x04, 0x00, 0x00, 0x00, 0x13, 0x00, 0x00, 0x00, 0x43, 0x4f, 0x4e, 0x56,
  0x45, 0x52, 0x53, 0x49, 0x4f, 0x4e, 0x5f, 0x4d, 0x45, 0x54, 0x41, 0x44,
  0x41, 0x54, 0x41, 0x00, 0x08, 0x00, 0x0c, 0x00, 0x08, 0x00, 0x04, 0x00,
  0x08, 0x00, 0x00, 0x00, 0x13, 0x00, 0x00, 0x00, 0x04, 0x00, 0x00, 0x00,
  0x13, 0x00, 0x00, 0x00, 0x6d, 0x69, 0x6e, 0x5f, 0x72, 0x75, 0x6e, 0x74,
  0x69, 0x6d, 0x65, 0x5f, 0x76, 0x65, 0x72, 0x73, 0x69, 0x6f, 0x6e, 0x00,
  0x15, 0x00, 0x00, 0x00, 0x94, 0x22, 0x00, 0x00, 0x8c, 0x22, 0x00, 0x00,
  0x68, 0x22, 0x00, 0x00, 0x44, 0x22, 0x00, 0x00, 0x80, 0x21, 0x00, 0x00,
  0xec, 0x1d, 0x00, 0x00, 0xb4, 0x1d, 0x00, 0x00, 0x98, 0x1d, 0x00, 0x00,
  0x80, 0x1d, 0x00, 0x00, 0x50, 0x01, 0x00, 0x00, 0xc8, 0x00, 0x00, 0x00,
  0xc0, 0x00, 0x00, 0x00, 0xb8, 0x00, 0x00, 0x00, 0xb0, 0x00, 0x00, 0x00,
  0xa8, 0x00, 0x00, 0x00, 0xa0, 0x00, 0x00, 0x00, 0x98, 0x00, 0x00, 0x00,
  0x90, 0x00, 0x00, 0x00, 0x88, 0x00, 0x00, 0x00, 0x68, 0x00, 0x00, 0x00,
  0x04, 0x00, 0x00, 0x00, 0x2e, 0xdd, 0xff, 0xff, 0x04, 0x00, 0x00, 0x00,
  0x54, 0x00, 0x00, 0x00, 0x0c, 0x00, 0x00, 0x00, 0x08, 0x00, 0x0e, 0x00,
  0x08, 0x00, 0x04, 0x00, 0x08, 0x00, 0x00, 0x00, 0x10, 0x00, 0x00, 0x00,
  0x24, 0x00, 0x00, 0x00, 0x00, 0x00, 0x06, 0x00, 0x08, 0x00, 0x04, 0x00,
  0x06, 0x00, 0x00, 0x00, 0x04, 0x00, 0x00, 0x00, 0x00, 0x00, 0x00, 0x00,
  0x00, 0x00, 0x0a, 0x00, 0x10, 0x00, 0x0c, 0x00, 0x08, 0x00, 0x04, 0x00,
  0x0a, 0x00, 0x00, 0x00, 0x02, 0x00, 0x00, 0x00, 0x02, 0x00, 0x00, 0x00,
  0x04, 0x00, 0x00, 0x00, 0x06, 0x00, 0x00, 0x00, 0x32, 0x2e, 0x31, 0x35,
  0x2e, 0x30, 0x00, 0x00, 0x8e, 0xdd, 0xff, 0xff, 0x04, 0x00, 0x00, 0x00,
  0x10, 0x00, 0x00, 0x00, 0x31, 0x2e, 0x35, 0x2e, 0x30, 0x00, 0x00, 0x00,
  0x00, 0x00, 0x00, 0x00, 0x00, 0x00, 0x00, 0x00, 0xec, 0xd3, 0xff, 0xff,
  0xf0, 0xd3, 0xff, 0xff, 0xf4, 0xd3, 0xff, 0xff, 0xf8, 0xd3, 0xff, 0xff,
  0xfc, 0xd3, 0xff, 0xff, 0x00, 0xd4, 0xff, 0xff, 0x04, 0xd4, 0xff, 0xff,
  0x08, 0xd4, 0xff, 0xff, 0xca, 0xdd, 0xff, 0xff, 0x04, 0x00, 0x00, 0x00,
  0x78, 0x00, 0x00, 0x00, 0xee, 0x8f, 0xbd, 0x3c, 0x4c, 0x8c, 0xae, 0x3e,
  0x1d, 0x19, 0x02, 0xbe, 0xee, 0x13, 0xec, 0x3e, 0x80, 0xd8, 0x37, 0xbf,
  0x7a, 0x92, 0xff, 0x3e, 0x1a, 0x60, 0xac, 0xbe, 0x97, 0x67, 0x93, 0x3e,
  0xf6, 0xa6, 0xcc, 0xbe, 0x2c, 0xc4, 0xda, 0x3c, 0xd7, 0x50, 0x16, 0x3e,
  0x2d, 0xed, 0x6a, 0x3f, 0x3f, 0xed, 0x3e, 0x3f, 0x08, 0x56, 0x17, 0xbf,
  0xba, 0xcf, 0x13, 0x3d, 0xa5, 0x09, 0x02, 0xbf, 0x11, 0x54, 0x2b, 0x3f,
  0xb0, 0xb9, 0xc5, 0xbe, 0xd4, 0xf5, 0x0d, 0x3f, 0x6b, 0xfe, 0x29, 0xbf,
  0x2b, 0xab, 0x43, 0x3f, 0x3b, 0x23, 0x62, 0xbe, 0xd3, 0x5e, 0x63, 0xbf,
  0xc0, 0x36, 0x27, 0xbe, 0x06, 0x39, 0x33, 0x3f, 0xbe, 0xa2, 0xd4, 0x3e,
  0xd9, 0xf9, 0x1f, 0x3f, 0x07, 0xa2, 0x11, 0xbf, 0x88, 0x8f, 0x7d, 0xbf,
  0x78, 0xdb, 0x2d, 0x3f, 0x4e, 0xde, 0xff, 0xff, 0x04, 0x00, 0x00, 0x00,
  0x20, 0x1c, 0x00, 0x00, 0xc5, 0xdf, 0x9a, 0xbd, 0xa7, 0x9a, 0xe0, 0xbd,
  0x34, 0x9b, 0x91, 0x3c, 0xd0, 0x08, 0x98, 0x3c, 0xd6, 0xe8, 0xf1, 0xbc,
  0xa0, 0x89, 0xed, 0xbd, 0xb7, 0x37, 0x51, 0xbd, 0x62, 0x10, 0xe9, 0x3c,
  0x99, 0x4a, 0x9e, 0xbd, 0xc8, 0xc9, 0x15, 0xbd, 0x7c, 0x62, 0xbd, 0xbd,
  0xba, 0x14, 0x46, 0xbe, 0xa0, 0x48, 0xf6, 0xbc, 0x53, 0x8b, 0x09, 0x3e,
  0x57, 0x02, 0x9c, 0x3d, 0x30, 0x1a, 0x80, 0xbc, 0xe5, 0xe7, 0xf0, 0xbd,
  0x03, 0x8d, 0x07, 0x3e, 0x90, 0x46, 0x1b, 0x3e, 0xb6, 0x45, 0x93, 0x3c,
  0x04, 0x6b, 0x83, 0xbe, 0x0b, 0x7e, 0x16, 0xbe, 0x26, 0xff, 0x33, 0x3e,
  0x9c, 0x51, 0x91, 0xba, 0x2a, 0x3e, 0x28, 0xbd, 0xfa, 0xd7, 0x17, 0xbe,
  0x35, 0xb6, 0x85, 0x3d, 0x18, 0xa7, 0xd4, 0xbc, 0x5e, 0x0d, 0x22, 0xbc,
  0x8c, 0x9f, 0xa4, 0x3d, 0xa4, 0xbf, 0x32, 0x3d, 0xe7, 0xa8, 0x93, 0x3d,
  0xde, 0x22, 0x20, 0xbd, 0x0f, 0x80, 0x14, 0x3e, 0xe5, 0xd7, 0x41, 0xbe,
  0x59, 0x8c, 0xd3, 0x3d, 0x51, 0x1f, 0x6e, 0xbe, 0xe9, 0x79, 0x34, 0xbe,
  0x7e, 0x59, 0x92, 0x3d, 0xbf, 0x2f, 0x91, 0xbe, 0x5f, 0x57, 0xb8, 0xbd,
  0xb8, 0xa6, 0x50, 0xbe, 0x39, 0xaa, 0x66, 0x3c, 0x91, 0xde, 0x16, 0xbe,
  0xaf, 0x8f, 0x26, 0xbe, 0x89, 0xe9, 0x85, 0xbc, 0x83, 0xc4, 0xb8, 0xbc,
  0xba, 0x8f, 0x61, 0x3e, 0x7d, 0x3f, 0x03, 0xbd, 0xf3, 0xf7, 0x8a, 0x3b,
  0x75, 0xff, 0xfe, 0xbc, 0xe0, 0xfc, 0xef, 0xbd, 0x08, 0x79, 0x77, 0x3e,
  0xa3, 0x65, 0x75, 0xbc, 0x0c, 0x4e, 0xff, 0xbd, 0x0c, 0x0e, 0x40, 0xbe,
  0xcd, 0x9e, 0x90, 0xbe, 0x76, 0x15, 0x16, 0x3e, 0x7c, 0x87, 0x6d, 0x3c,
  0x9f, 0x15, 0x70, 0xbe, 0xe7, 0x01, 0xa4, 0x3d, 0x95, 0x42, 0x8a, 0x3d,
  0x44, 0x4a, 0x9b, 0xbd, 0x63, 0x8d, 0xcd, 0x3c, 0x29, 0x8f, 0x12, 0xbe,
  0x27, 0x92, 0x36, 0xbe, 0x97, 0x6e, 0xe8, 0xbd, 0x5d, 0x21, 0xb2, 0xbd,
  0x43, 0x63, 0x08, 0xbd, 0x84, 0x5f, 0xca, 0xbd, 0x80, 0x78, 0x78, 0xbe,
  0x47, 0xa2, 0x01, 0xbd, 0x4b, 0x3e, 0xc1, 0x3d, 0x5c, 0xee, 0x92, 0xbc,
  0xc5, 0xd9, 0x9b, 0xbd, 0x3c, 0x17, 0x78, 0xbd, 0x8f, 0x6f, 0x60, 0x3e,
  0xf7, 0x66, 0x19, 0x3e, 0xeb, 0xb7, 0xac, 0xbd, 0xa4, 0xf6, 0x50, 0x3e,
  0xf6, 0xb6, 0x56, 0x3e, 0xe0, 0x0f, 0x45, 0xbc, 0x86, 0xf7, 0x11, 0x3e,
  0x17, 0xea, 0x73, 0x3d, 0xba, 0x80, 0x9e, 0x3d, 0xf2, 0xc4, 0x50, 0x3a,
  0xae, 0xe0, 0x15, 0xbe, 0x6e, 0x86, 0x93, 0x3d, 0x65, 0x3e, 0xdb, 0x3b,
  0x00, 0xde, 0x5d, 0xbe, 0x20, 0x0e, 0x03, 0xbe, 0x61, 0x7a, 0xd4, 0x3d,
  0xa5, 0x95, 0x9d, 0xbd, 0xbf, 0xaf, 0x41, 0xbd, 0xe1, 0x5d, 0x26, 0xbe,
  0x32, 0x3b, 0x5b, 0xbe, 0xf5, 0x06, 0x61, 0xbe, 0xc4, 0x18, 0x2a, 0x3d,
  0x78, 0xc9, 0x00, 0x3d, 0x84, 0x4e, 0x33, 0xbe, 0xd9, 0x11, 0x0c, 0xbe,
  0x02, 0x19, 0x82, 0xbd, 0xd6, 0x72, 0xe7, 0x3e, 0xf1, 0x75, 0x02, 0xbe,
  0x16, 0xc2, 0x80, 0x3d, 0xb4, 0x13, 0xbe, 0x3d, 0x06, 0xb8, 0x33, 0x3e,
  0x01, 0xcf, 0xcf, 0x3d, 0xbe, 0x5c, 0x94, 0xbc, 0x3a, 0xef, 0x69, 0x3e,
  0x71, 0xb0, 0xa3, 0x3d, 0xfd, 0x6f, 0x3f, 0x3e, 0x7f, 0x9a, 0x25, 0xbe,
  0xd3, 0xf8, 0xa7, 0xbb, 0x5a, 0xee, 0xd6, 0x3d, 0x31, 0xd9, 0x94, 0x3e,
  0x70, 0x00, 0x5c, 0x3e, 0x72, 0xb1, 0x5a, 0xbe, 0x69, 0xfd, 0x28, 0x3b,
  0xe5, 0x18, 0x71, 0xbe, 0x99, 0x0b, 0x6c, 0xbe, 0x0d, 0x44, 0xe9, 0xbd,
  0xfd, 0x75, 0x6b, 0x3e, 0xe5, 0xc3, 0xad, 0xbc, 0x14, 0x65, 0xad, 0x3d,
  0x91, 0x3e, 0xa7, 0xbe, 0xdc, 0x5d, 0x4e, 0xbe, 0x96, 0x97, 0x34, 0x3e,
  0xca, 0xf6, 0xb3, 0x3d, 0xfe, 0xb3, 0xbf, 0x3c, 0xab, 0x70, 0x3b, 0xbe,
  0x74, 0xc5, 0x2e, 0xbd, 0x26, 0x0d, 0x59, 0x3e, 0xce, 0x09, 0x39, 0x3e,
  0x8c, 0x01, 0x1b, 0x3d, 0x3f, 0x3c, 0x96, 0x3d, 0xf0, 0x45, 0xc9, 0xbc,
  0x07, 0x02, 0x47, 0x3e, 0x80, 0xec, 0x19, 0x3e, 0x52, 0x6b, 0x08, 0x3e,
  0x4d, 0xb2, 0x66, 0x3e, 0xbb, 0x98, 0xbb, 0x3e, 0x2a, 0xae, 0x6b, 0xbd,
  0x42, 0x68, 0x9f, 0x3d, 0x1d, 0x76, 0xf3, 0xbd, 0xc5, 0x49, 0xae, 0x3e,
  0x17, 0xff, 0xbd, 0x3e, 0x73, 0xab, 0xbd, 0xbe, 0x01, 0x15, 0x60, 0x3e,
  0x51, 0xe8, 0xe0, 0x3d, 0x88, 0x21, 0xab, 0x3d, 0x93, 0x76, 0xbd, 0x3c,
  0xd8, 0x1b, 0xd0, 0x3e, 0x22, 0x6c, 0x0a, 0xbd, 0x92, 0xc1, 0x83, 0x3c,
  0x92, 0x3b, 0xe9, 0x3c, 0xd5, 0xbd, 0xd3, 0xbb, 0x70, 0xaa, 0xa9, 0x3e,
  0x02, 0xf2, 0x5d, 0x3d, 0x55, 0xae, 0x29, 0x3e, 0x75, 0x2b, 0x3c, 0xbe,
  0xe5, 0xf8, 0x29, 0x3e, 0x85, 0xb3, 0xc9, 0x3d, 0xe5, 0xb2, 0xbf, 0x3d,
  0xa7, 0x7e, 0xe5, 0xbd, 0x7c, 0x50, 0x18, 0x3d, 0x20, 0x42, 0x67, 0x3e,
  0xe8, 0xd4, 0x0d, 0x3e, 0xd3, 0xc1, 0x0d, 0x3e, 0xf6, 0x48, 0xcf, 0xbc,
  0xef, 0xfd, 0xd7, 0x3d, 0xfe, 0xf4, 0xb5, 0x3e, 0x00, 0x61, 0x59, 0xbd,
  0x1f, 0x79, 0xb1, 0x3c, 0xed, 0xcb, 0xb8, 0x3d, 0xcc, 0x59, 0xb3, 0x3e,
  0xfb, 0x89, 0x94, 0x3e, 0x54, 0xd2, 0x6e, 0xbe, 0xd5, 0x1a, 0x61, 0x3e,
  0x48, 0x98, 0x84, 0xbd, 0xda, 0xcc, 0xe6, 0x3c, 0x62, 0x08, 0x67, 0x3e,
  0xb5, 0x3f, 0x2e, 0xbd, 0x14, 0x08, 0x34, 0x3e, 0x9f, 0xea, 0x39, 0x3d,
  0xe7, 0x28, 0x22, 0x3e, 0x05, 0x35, 0x63, 0x3e, 0xee, 0xb5, 0xcb, 0x3d,
  0xcc, 0x29, 0xa2, 0x3d, 0xfc, 0x1a, 0xe1, 0xbd, 0xaf, 0x07, 0x1e, 0x3e,
  0xa8, 0xc3, 0x5e, 0x3e, 0x8e, 0x02, 0x32, 0xbe, 0x6d, 0xc6, 0x0a, 0x3e,
  0x38, 0x71, 0xef, 0x3d, 0x51, 0x51, 0x15, 0xbe, 0xd3, 0xf2, 0x48, 0x3d,
  0x94, 0x91, 0x07, 0x3e, 0x44, 0xeb, 0x3c, 0x3d, 0x8c, 0x6b, 0x2e, 0xbd,
  0xee, 0xcd, 0x2d, 0x3e, 0x3d, 0x07, 0xa2, 0x3d, 0xf5, 0xdd, 0x9b, 0x3d,
  0xad, 0xd8, 0xb1, 0x3d, 0xc4, 0x8c, 0xc4, 0x3d, 0xd6, 0x37, 0x00, 0xbd,
  0xd3, 0x1f, 0x37, 0x3e, 0x45, 0xe2, 0x7b, 0x3d, 0x97, 0xb8, 0xc4, 0x3c,
  0x71, 0xf1, 0x82, 0x3e, 0x73, 0xd5, 0x7e, 0x3e, 0xaf, 0x1c, 0xc9, 0x3d,
  0x9f, 0xf2, 0xca, 0x3d, 0x9a, 0x4a, 0x70, 0x3d, 0xc3, 0xca, 0xc6, 0x3d,
  0x89, 0x83, 0x92, 0x3e, 0x15, 0x28, 0x79, 0x3e, 0x5e, 0xa5, 0x36, 0xbd,
  0xa8, 0x7a, 0x2f, 0x3e, 0x60, 0xfb, 0xeb, 0x3d, 0x3f, 0xff, 0xe7, 0xbd,
  0xac, 0xa4, 0x10, 0x3e, 0xc1, 0xb5, 0x4c, 0xbe, 0x8f, 0xa9, 0x2b, 0x3e,
  0x29, 0x4f, 0xd9, 0xbc, 0xcc, 0x6d, 0x8d, 0xbc, 0xc0, 0xa9, 0x76, 0x3d,
  0x0b, 0xfc, 0x56, 0xbe, 0xe2, 0xff, 0x27, 0xbe, 0xee, 0x38, 0x01, 0x3e,
  0xaa, 0xdd, 0x1e, 0xbe, 0x7a, 0xcd, 0x51, 0x3d, 0x5f, 0x77, 0x28, 0xbc,
  0x2c, 0x02, 0x09, 0xbe, 0xb7, 0x75, 0x73, 0x3b, 0xdc, 0xb5, 0x21, 0x3d,
  0x12, 0x57, 0x1f, 0x3e, 0xee, 0xc1, 0x85, 0x3d, 0x00, 0x2e, 0x33, 0xbd,
  0xb9, 0x1b, 0x8f, 0x3c, 0x50, 0x34, 0x78, 0x3e, 0x62, 0xd3, 0x77, 0x3e,
  0x1d, 0x83, 0x88, 0x3d, 0x36, 0xcf, 0x12, 0x3e, 0x59, 0x32, 0x99, 0xbd,
  0xcd, 0x2b, 0x39, 0x3e, 0x89, 0x11, 0xaf, 0x3d, 0x13, 0x70, 0x16, 0xbe,
  0x2c, 0xc5, 0x28, 0x3e, 0xcb, 0x54, 0x07, 0xbe, 0xb2, 0x51, 0xb1, 0x3d,
  0xd9, 0xd5, 0x9d, 0xbc, 0x20, 0x81, 0x99, 0xbe, 0xd8, 0x9b, 0x1e, 0x3c,
  0xba, 0x70, 0x03, 0xbd, 0xe0, 0x81, 0xb0, 0xbd, 0x31, 0x94, 0x08, 0xbe,
  0xf4, 0x21, 0xe3, 0xbe, 0x0d, 0xcf, 0xa5, 0x3d, 0x24, 0xe5, 0x62, 0x3c,
  0xa2, 0x50, 0x2c, 0xbe, 0x9f, 0x36, 0x1a, 0xbe, 0x40, 0x58, 0xfe, 0x3d,
  0xd8, 0x8c, 0x04, 0x3e, 0xdf, 0x20, 0x98, 0xbd, 0xcc, 0x91, 0xd8, 0x3c,
  0x19, 0x75, 0x1d, 0xbe, 0xbd, 0xbc, 0x2e, 0x3e, 0x2a, 0x96, 0x7f, 0xbd,
  0xc8, 0x16, 0xa0, 0x3c, 0xb5, 0x3a, 0x43, 0x3e, 0xc1, 0xfc, 0x06, 0x3e,
  0xbe, 0x97, 0x30, 0xbe, 0x80, 0x3f, 0x29, 0xbe, 0xa3, 0xfe, 0x16, 0x3e,
  0x28, 0x04, 0x4e, 0x3c, 0x9c, 0x23, 0x5e, 0x3e, 0x92, 0x41, 0x5a, 0xbe,
  0xdc, 0x3b, 0x8f, 0x3c, 0xda, 0x1e, 0x06, 0xbe, 0x5f, 0x11, 0x63, 0x3e,
  0xa7, 0xe8, 0x48, 0xbd, 0xb3, 0xf2, 0xe1, 0xbe, 0x6b, 0x7c, 0x45, 0xbc,
  0x85, 0x0a, 0x9c, 0x3d, 0x47, 0x8b, 0x39, 0x3c, 0x05, 0x8d, 0x85, 0xbe,
  0xcf, 0xde, 0x6b, 0xbe, 0x7b, 0xda, 0xf9, 0x3c, 0xf6, 0x35, 0x63, 0xbd,
  0x5a, 0x39, 0x96, 0xbe, 0xea, 0x9e, 0x2a, 0xbe, 0x2e, 0xe4, 0x73, 0x3e,
  0x4a, 0xd0, 0xc9, 0x3c, 0x12, 0x13, 0x02, 0xbe, 0x07, 0x89, 0x2f, 0xbe,
  0xbe, 0x77, 0xff, 0xbd, 0x7b, 0x61, 0x26, 0x3e, 0x0a, 0x0a, 0x0e, 0xbe,
  0x75, 0xf3, 0x3b, 0x3e, 0xbb, 0x82, 0x7b, 0xbc, 0xbc, 0x8d, 0x27, 0x3e,
  0x60, 0xbc, 0x49, 0xbd, 0xd1, 0x1a, 0x11, 0xbd, 0x25, 0x7b, 0x23, 0xbe,
  0x66, 0x4f, 0x16, 0x3e, 0xea, 0x23, 0x03, 0x3c, 0x2c, 0xf4, 0xd7, 0xbd,
  0x68, 0x9d, 0xe3, 0x3d, 0xf6, 0xbb, 0x6d, 0x3d, 0xc2, 0x05, 0x47, 0x3e,
  0x2f, 0x6e, 0x81, 0x3d, 0xf0, 0x4d, 0x86, 0xbe, 0x40, 0x6e, 0xd0, 0x3d,
  0x26, 0xf2, 0xca, 0xbd, 0x7c, 0x77, 0x28, 0xbd, 0xe2, 0x6d, 0x3e, 0xbe,
  0x78, 0xff, 0x43, 0x3d, 0x71, 0x38, 0x21, 0x3e, 0x80, 0x1c, 0x23, 0x3d,
  0x28, 0x1a, 0x0b, 0xbe, 0xc3, 0x7b, 0xf7, 0xbd, 0x0e, 0x81, 0x7b, 0x3d,
  0x1a, 0x8f, 0x15, 0xbd, 0x2c, 0x9c, 0x31, 0xbe, 0x18, 0x05, 0x02, 0xbe,
  0xc9, 0x6d, 0x7f, 0x3d, 0xc0, 0xa2, 0x04, 0x3e, 0x6e, 0xcb, 0xb4, 0xbd,
  0xbc, 0x99, 0x99, 0xbd, 0x59, 0x8e, 0x2c, 0xbe, 0xf5, 0xc5, 0xb4, 0xbd,
  0x47, 0x8b, 0x01, 0xbd, 0xf2, 0xa7, 0xd1, 0xbd, 0x8e, 0xd6, 0x8a, 0xbc,
  0xab, 0x24, 0x36, 0xbe, 0x32, 0x22, 0xd7, 0x3d, 0x0e, 0x9c, 0x49, 0x3d,
  0xd9, 0x13, 0xa7, 0xbd, 0xca, 0x9c, 0xe5, 0xbd, 0x46, 0xe5, 0x78, 0x3d,
  0xbb, 0xef, 0xe6, 0x3d, 0x3c, 0xa0, 0x03, 0x3e, 0x2a, 0x36, 0x4f, 0x3c,
  0xbd, 0x17, 0xa8, 0xbc, 0x07, 0xb5, 0x02, 0xbe, 0x56, 0xa8, 0x82, 0xbd,
  0x36, 0x19, 0x61, 0x3e, 0xd5, 0xe6, 0x32, 0x3e, 0xcd, 0x7b, 0x0b, 0xbe,
  0xeb, 0xfd, 0x9e, 0xbd, 0xf8, 0x4c, 0x85, 0xbd, 0xc1, 0xf1, 0x1e, 0x3e,
  0x3a, 0x6c, 0x93, 0xbd, 0x36, 0xc3, 0x51, 0x3d, 0x33, 0x6d, 0x78, 0xbd,
  0x4a, 0xd8, 0xf2, 0xbd, 0x99, 0xba, 0x40, 0xbd, 0x36, 0x61, 0x39, 0xbd,
  0x14, 0x9a, 0x24, 0xbc, 0xe9, 0x71, 0xab, 0x3d, 0xc9, 0x62, 0x07, 0x3e,
  0xbe, 0x76, 0x7f, 0xbd, 0xd6, 0x53, 0x8e, 0xbd, 0x06, 0xf0, 0x5f, 0xbd,
  0xf7, 0xea, 0xda, 0x3d, 0x1b, 0xe9, 0x2f, 0x3e, 0x86, 0x53, 0x5a, 0x3c,
  0xc6, 0xc3, 0x45, 0x3c, 0xc7, 0x30, 0x48, 0x3d, 0x85, 0xb0, 0x22, 0xbe,
  0xf6, 0x1e, 0xd1, 0xbc, 0x93, 0x38, 0xe8, 0x3c, 0x9f, 0x9e, 0xda, 0x3c,
  0xc1, 0x2c, 0x59, 0x3d, 0xc0, 0x71, 0xdd, 0x3d, 0xfe, 0x1a, 0x2c, 0x3e,
  0x5f, 0x60, 0x8f, 0xbd, 0x65, 0x67, 0xbc, 0xbd, 0xc0, 0x6e, 0xb8, 0x3d,
  0xde, 0xe7, 0x10, 0xbd, 0x47, 0xec, 0xcb, 0x3d, 0xcc, 0x4d, 0x67, 0xbd,
  0x64, 0x2f, 0xaa, 0xb9, 0x75, 0x2d, 0x21, 0x3e, 0x6f, 0x6b, 0x0b, 0x3d,
  0xd1, 0xe1, 0x74, 0x3e, 0xbd, 0xff, 0xa2, 0x3d, 0x40, 0x2b, 0x32, 0x3e,
  0x89, 0xc2, 0xe2, 0x3c, 0x0b, 0x29, 0x7d, 0x3e, 0x61, 0x7e, 0x79, 0x3e,
  0x29, 0xff, 0x2f, 0xbd, 0x71, 0x89, 0x19, 0xbe, 0x17, 0x73, 0xcd, 0x3d,
  0x47, 0x99, 0x28, 0x3e, 0x33, 0x99, 0x3b, 0x3e, 0xc4, 0x37, 0xaf, 0xbd,
  0x94, 0xa8, 0xab, 0xbd, 0xba, 0x60, 0x1a, 0xbe, 0x13, 0x6c, 0x60, 0xbd,
  0x69, 0xb6, 0x1a, 0x3e, 0xea, 0x5b, 0x02, 0xbe, 0x55, 0x24, 0x07, 0x3e,
  0x90, 0x53, 0x91, 0xbd, 0xed, 0x5b, 0x8c, 0xbd, 0x5a, 0x23, 0x24, 0x3e,
  0x05, 0xb8, 0x14, 0xbe, 0x35, 0x9c, 0x97, 0x3d, 0x14, 0x25, 0xf9, 0xbd,
  0xd7, 0xac, 0x38, 0x3d, 0x85, 0x42, 0xf9, 0x3b, 0x4a, 0x92, 0x61, 0xbd,
  0x9f, 0xf7, 0x8a, 0xbd, 0x2b, 0x0f, 0xaf, 0xbd, 0x61, 0x13, 0x8a, 0x3d,
  0x30, 0xe5, 0x2d, 0xbd, 0x42, 0x0c, 0x4c, 0x3e, 0x5f, 0xb8, 0x96, 0xbd,
  0xa3, 0xc8, 0x00, 0x3e, 0x49, 0x02, 0x6c, 0x3d, 0x85, 0x33, 0xff, 0x3d,
  0x32, 0x28, 0x29, 0xbe, 0x9f, 0x65, 0x5b, 0x3d, 0x22, 0xd4, 0x10, 0x3d,
  0xb7, 0x21, 0x56, 0x3e, 0x1d, 0x82, 0x3c, 0x3e, 0x6f, 0xf6, 0xf8, 0xb9,
  0x8d, 0x2d, 0x18, 0x3e, 0xf6, 0xfe, 0x3d, 0x3d, 0x25, 0x21, 0x1f, 0x3d,
  0xd5, 0x65, 0xb2, 0x3d, 0x8f, 0xc7, 0xbe, 0xbe, 0x17, 0xa7, 0x81, 0xbd,
  0xf0, 0xf0, 0x5e, 0xbe, 0xc1, 0x51, 0x56, 0x3d, 0x77, 0xe5, 0x94, 0xbe,
  0x28, 0xe8, 0x9d, 0xbe, 0xc7, 0xaf, 0xa7, 0xbd, 0x63, 0x7a, 0x70, 0xbd,
  0x5c, 0x99, 0xbe, 0x3b, 0xb1, 0x16, 0x80, 0xbe, 0xea, 0x6b, 0x9a, 0x3d,
  0x11, 0x91, 0xbc, 0xbd, 0xdd, 0x53, 0x1b, 0xbd, 0xa1, 0x35, 0x8c, 0x3d,
  0x35, 0x44, 0x79, 0xbd, 0x89, 0xe6, 0x0f, 0x3e, 0x85, 0xd7, 0x7b, 0xbd,
  0x30, 0x76, 0x16, 0xbe, 0x06, 0x4c, 0x25, 0x3d, 0x3f, 0x2d, 0xba, 0x3d,
  0x89, 0x3c, 0x5a, 0xbe, 0x9d, 0x7b, 0xef, 0x3d, 0xbc, 0xf0, 0x08, 0x3e,
  0xb6, 0x7b, 0x8e, 0xbd, 0x8e, 0x02, 0x8f, 0x3d, 0x66, 0xd0, 0xf4, 0xbd,
  0x60, 0x39, 0x0b, 0x3e, 0x39, 0xa8, 0x01, 0xbe, 0x4f, 0x8e, 0xbb, 0xbc,
  0x7e, 0xdb, 0x26, 0x3d, 0x75, 0xb0, 0x2e, 0xbe, 0x95, 0xbf, 0x40, 0xbd,
  0x89, 0x69, 0x87, 0xbd, 0xa6, 0xbb, 0x40, 0xbe, 0xa8, 0x23, 0x9e, 0xbe,
  0x9a, 0x46, 0xab, 0xbe, 0xbb, 0x0c, 0xc0, 0x3d, 0xa7, 0x07, 0x77, 0xbe,
  0x2a, 0x31, 0x51, 0xbd, 0xde, 0x4f, 0xb2, 0xbe, 0xd5, 0x87, 0x2e, 0x3e,
  0x64, 0x68, 0x03, 0x3e, 0x85, 0x22, 0x5f, 0xbe, 0x3d, 0xba, 0x73, 0xbd,
  0x46, 0xdb, 0xb9, 0x3c, 0x02, 0x37, 0xff, 0x3d, 0x83, 0xfe, 0x5a, 0xba,
  0xcb, 0x28, 0x54, 0x3d, 0x84, 0xa6, 0xd9, 0x3d, 0xfd, 0x5b, 0x50, 0xbd,
  0x97, 0x57, 0x1d, 0xbd, 0xa3, 0x06, 0xda, 0x3d, 0x9c, 0xfd, 0x78, 0x3d,
  0x68, 0xd4, 0xec, 0x3d, 0x43, 0xab, 0x15, 0x3e, 0xf8, 0xef, 0xc3, 0xbd,
  0xc6, 0xe7, 0xae, 0x3d, 0x81, 0x3d, 0x53, 0x3d, 0xbe, 0xb1, 0xb6, 0x3c,
  0x8c, 0xa2, 0x65, 0xbd, 0xcf, 0xac, 0x88, 0xbe, 0x23, 0x66, 0x55, 0x3d,
  0xf7, 0x20, 0x69, 0xbc, 0x10, 0x93, 0xd1, 0xbd, 0x5d, 0x89, 0x37, 0xbe,
  0x77, 0x7d, 0x1c, 0xbc, 0x66, 0x9e, 0xb8, 0xbd, 0xec, 0xe7, 0xc3, 0xbd,
  0x5e, 0xd8, 0x97, 0xbd, 0x36, 0xd4, 0x87, 0xbd, 0xd1, 0x0b, 0x7a, 0x3e,
  0x8a, 0x90, 0xa0, 0xbd, 0x03, 0xf5, 0x1b, 0x3d, 0x94, 0xca, 0x9f, 0x3d,
  0x26, 0x18, 0x1b, 0xbe, 0x7c, 0x4d, 0xed, 0x3d, 0x45, 0x6a, 0xca, 0xbd,
  0x16, 0xf1, 0xde, 0x3d, 0x5e, 0x21, 0xce, 0x3d, 0x0f, 0x04, 0x19, 0x3d,
  0xf8, 0x0d, 0xa5, 0xbd, 0xed, 0xb3, 0xf9, 0xbd, 0x00, 0x6f, 0x94, 0xbc,
  0xb1, 0x7a, 0x02, 0x3e, 0x10, 0x57, 0x13, 0xbe, 0x87, 0x89, 0x47, 0xbd,
  0x27, 0x06, 0xa7, 0xbc, 0x54, 0x83, 0x31, 0xbe, 0x8b, 0xc8, 0xc1, 0x3d,
  0x5b, 0x7a, 0x84, 0xbd, 0x21, 0x43, 0xf9, 0x3d, 0x31, 0x7f, 0x22, 0xbd,
  0x1f, 0x33, 0x6d, 0x3d, 0xfc, 0x8c, 0x94, 0x3d, 0x22, 0xb6, 0x38, 0x3b,
  0x23, 0x8c, 0x84, 0x3e, 0x46, 0xff, 0xbd, 0xbc, 0x0f, 0x0b, 0x92, 0x3c,
  0x1b, 0xd4, 0x41, 0xbe, 0xe6, 0xc5, 0x08, 0xbd, 0x22, 0xa1, 0xbf, 0x3d,
  0xf8, 0x84, 0x02, 0xbd, 0xcb, 0x1c, 0x29, 0x3d, 0x9a, 0xf3, 0x0a, 0xbe,
  0xa6, 0x22, 0xc2, 0x3c, 0x55, 0xc8, 0xc2, 0x3d, 0x80, 0xa8, 0xcc, 0x3d,
  0x4b, 0x3e, 0x07, 0xbb, 0xba, 0x66, 0xd2, 0xbb, 0x07, 0x6f, 0x0e, 0xbe,
  0x42, 0x8b, 0x95, 0xbd, 0x30, 0x5a, 0x97, 0x3d, 0x4d, 0x31, 0xef, 0xbd,
  0x63, 0x40, 0x00, 0xbe, 0x4d, 0x39, 0xa5, 0xbd, 0xe4, 0xc9, 0x48, 0x3e,
  0xe6, 0xa7, 0x9f, 0x3c, 0x0c, 0xf0, 0x3f, 0xbd, 0x93, 0x7c, 0x09, 0xbe,
  0x39, 0x0f, 0xa3, 0x3c, 0xe0, 0x54, 0x4d, 0x3e, 0x06, 0xea, 0x05, 0x3e,
  0x53, 0xbb, 0x2c, 0x3e, 0xea, 0x89, 0x8a, 0xbd, 0x95, 0x9e, 0x07, 0x3c,
  0x01, 0x8b, 0xd0, 0xbd, 0x66, 0x0a, 0x06, 0x3d, 0xfc, 0xe0, 0xe8, 0xbd,
  0xe7, 0xe6, 0x85, 0x3c, 0xf1, 0xaa, 0xee, 0xbc, 0x44, 0x1f, 0xc1, 0xbd,
  0x11, 0x91, 0x63, 0x3d, 0xfa, 0x25, 0xd9, 0xbd, 0x7e, 0xe8, 0x75, 0x3d,
  0x48, 0x51, 0xdf, 0xbd, 0x6f, 0xc5, 0x9b, 0xbe, 0xa8, 0x73, 0xa1, 0x3d,
  0x7d, 0x28, 0x85, 0xbc, 0x27, 0x4a, 0x47, 0xbe, 0x12, 0xb2, 0x2f, 0xbe,
  0x89, 0xb3, 0x87, 0x3e, 0xfe, 0x33, 0xb8, 0xbd, 0x8e, 0x3e, 0x70, 0xbb,
  0x9b, 0x9d, 0x04, 0xbe, 0x61, 0xd2, 0xd1, 0xbd, 0x31, 0x59, 0x1d, 0x3e,
  0xbf, 0xfe, 0x08, 0xbe, 0x5a, 0x14, 0x87, 0x3d, 0xf6, 0x54, 0x4a, 0x3e,
  0x16, 0x7c, 0x03, 0x3d, 0xee, 0xf2, 0x8a, 0x3e, 0xd3, 0xb4, 0x67, 0xbc,
  0x95, 0x31, 0x1e, 0x3e, 0xa9, 0xc1, 0x33, 0x3e, 0x9e, 0x41, 0x1e, 0xbd,
  0x8f, 0x56, 0x88, 0xbd, 0x7f, 0x3d, 0xf1, 0x3d, 0x94, 0x54, 0x3a, 0x3e,
  0xfe, 0xa9, 0xba, 0x3c, 0xe4, 0xec, 0x00, 0xbd, 0x83, 0xc4, 0x44, 0xbd,
  0xf9, 0x15, 0x6e, 0x3d, 0xb9, 0x1a, 0x9a, 0x3d, 0xe6, 0xc9, 0x4b, 0x3e,
  0x7b, 0x79, 0x8a, 0x3d, 0x7f, 0x07, 0x5b, 0xbe, 0xf9, 0xd0, 0x3a, 0xbc,
  0xc9, 0xd3, 0x13, 0xbe, 0x33, 0x6c, 0x12, 0xbd, 0x05, 0xeb, 0x2c, 0xbe,
  0x41, 0x2d, 0x19, 0x3e, 0x09, 0xad, 0x1c, 0x3e, 0xfe, 0x62, 0x87, 0xbc,
  0xb8, 0xe5, 0x7f, 0xbe, 0xcd, 0xef, 0xe5, 0xbb, 0xaf, 0x80, 0x95, 0x3d,
  0xdd, 0x9a, 0xbc, 0x3c, 0x77, 0xe9, 0x49, 0x3e, 0x45, 0x03, 0x50, 0x3e,
  0xba, 0x65, 0xe5, 0xbb, 0xcf, 0xf5, 0x99, 0x3d, 0x59, 0xac, 0xb5, 0xbd,
  0x23, 0x8a, 0xca, 0x3d, 0xc9, 0xb9, 0x0a, 0x3e, 0x61, 0x7c, 0x1f, 0x3e,
  0xfd, 0x46, 0x8c, 0x3e, 0xec, 0xde, 0x8a, 0x3c, 0xec, 0x1a, 0x3a, 0x3e,
  0x1c, 0x9f, 0xff, 0xbc, 0xcf, 0xf8, 0x92, 0x3d, 0x89, 0x34, 0xb1, 0xbd,
  0x6e, 0x48, 0x7d, 0xba, 0x69, 0xc2, 0xb7, 0xbd, 0xfd, 0x0f, 0x2e, 0x3d,
  0xe8, 0x7e, 0xa0, 0x3e, 0x90, 0xe0, 0x51, 0xbe, 0x08, 0x85, 0xc7, 0xbd,
  0xd6, 0x0d, 0x99, 0xbc, 0x48, 0x9a, 0x5f, 0xbd, 0xd5, 0x6e, 0xdc, 0x3d,
  0xb5, 0x04, 0xb6, 0x3e, 0xe5, 0x05, 0x61, 0x3d, 0x42, 0x2c, 0xa9, 0x3d,
  0x70, 0x19, 0x9b, 0x3d, 0xb4, 0x3a, 0x99, 0xbd, 0x1b, 0x3d, 0x19, 0x3e,
  0xf9, 0x32, 0x1c, 0xbe, 0x59, 0x93, 0x8b, 0x3d, 0xba, 0x30, 0x53, 0xbd,
  0xf5, 0x43, 0x05, 0x3e, 0x8d, 0x29, 0x28, 0xbe, 0x3d, 0xdb, 0x0f, 0xbe,
  0x7f, 0x3d, 0xc7, 0x3d, 0xb8, 0xaa, 0x0d, 0xbe, 0xe2, 0x4b, 0xb0, 0x3c,
  0x20, 0x67, 0xa0, 0x3e, 0x47, 0xcf, 0x17, 0xbe, 0x10, 0xe3, 0x4b, 0xbd,
  0xa6, 0x5b, 0x8f, 0xbd, 0xa1, 0x1f, 0xac, 0x3d, 0x84, 0x38, 0x2b, 0x3e,
  0x53, 0x7d, 0x9b, 0xbd, 0x3b, 0xf9, 0x25, 0x3d, 0x11, 0xcc, 0x25, 0x3e,
  0x64, 0x4a, 0xc0, 0x3d, 0xdd, 0x8c, 0x0f, 0x3d, 0x98, 0xc1, 0xaa, 0x3d,
  0x80, 0x40, 0xdd, 0xbd, 0xeb, 0xec, 0x26, 0xbd, 0x6f, 0x03, 0xb1, 0xbc,
  0xde, 0x7a, 0xb4, 0xbd, 0x99, 0x9c, 0x58, 0xbd, 0x1a, 0xe2, 0x55, 0x3d,
  0xef, 0x69, 0x5b, 0x3e, 0x58, 0x62, 0x07, 0x3e, 0x41, 0xb3, 0x85, 0xbc,
  0xa5, 0xad, 0x3a, 0xbd, 0x9e, 0x73, 0x01, 0x3e, 0x81, 0x14, 0x9d, 0xbd,
  0x67, 0x74, 0x8d, 0x3d, 0x39, 0x8b, 0x8b, 0xbd, 0xa1, 0xea, 0x1f, 0x3d,
  0x1d, 0x68, 0xb2, 0xbd, 0xfe, 0xad, 0x0f, 0x3e, 0x86, 0xf9, 0x58, 0x3e,
  0xa4, 0xa0, 0x7f, 0xbd, 0xa2, 0xfb, 0xed, 0x3d, 0xe2, 0x86, 0xe7, 0x3d,
  0x83, 0x33, 0x88, 0x3d, 0x65, 0x2e, 0xdc, 0x3d, 0x2d, 0x5d, 0xa4, 0x3d,
  0xab, 0x03, 0xa1, 0x3d, 0x99, 0xdd, 0xb9, 0x3c, 0xf5, 0x55, 0x22, 0xbe,
  0xa5, 0x21, 0x9f, 0xbd, 0x43, 0x13, 0xaa, 0x3e, 0x24, 0x4e, 0x6b, 0xbc,
  0xab, 0xb5, 0xdd, 0x3d, 0x5d, 0xa8, 0x69, 0x3e, 0xfa, 0x8a, 0x96, 0xbc,
  0x8c, 0xc1, 0x65, 0xbe, 0x96, 0x3a, 0x0c, 0xbe, 0xf7, 0x24, 0x65, 0xbc,
  0x25, 0xf4, 0x53, 0x3e, 0xee, 0xbe, 0xad, 0x3c, 0x20, 0xb9, 0x63, 0xbe,
  0x18, 0xcc, 0xa3, 0xbc, 0xf2, 0x85, 0xea, 0xbd, 0xa7, 0x59, 0xb6, 0x3d,
  0x23, 0xc2, 0x79, 0xbc, 0xc4, 0x4e, 0xfc, 0x3c, 0x89, 0x1a, 0xe1, 0xbd,
  0x32, 0x5a, 0x15, 0x3e, 0xca, 0x6c, 0xef, 0xba, 0x5b, 0xb2, 0x3b, 0x3d,
  0x15, 0x2f, 0x23, 0xbe, 0xf5, 0xee, 0x36, 0x3e, 0xaa, 0x40, 0x69, 0xbd,
  0x3b, 0x06, 0xfb, 0x3d, 0x7b, 0x2d, 0x2f, 0xbe, 0x49, 0xc9, 0xbb, 0x3b,
  0x85, 0xf2, 0x27, 0xbe, 0x8b, 0x9b, 0xe3, 0x3d, 0xb3, 0x0c, 0xbd, 0x3d,
  0xaf, 0xc6, 0xd0, 0xbd, 0xa0, 0x01, 0x99, 0x3e, 0xc4, 0x4f, 0xc5, 0xbd,
  0x50, 0xa3, 0xa5, 0x3d, 0xfd, 0x8a, 0x5c, 0xbd, 0x56, 0xa1, 0x85, 0x3c,
  0xcc, 0x8a, 0x8e, 0xbd, 0xfa, 0xef, 0x7c, 0xbd, 0x2f, 0x29, 0x11, 0xbe,
  0x10, 0x75, 0x25, 0x3d, 0x02, 0x43, 0xf8, 0xbd, 0x0d, 0x63, 0xf1, 0x3c,
  0xc0, 0x3f, 0xca, 0x3b, 0xe4, 0x96, 0xee, 0xbd, 0x28, 0x42, 0x2a, 0xbd,
  0x8d, 0xc5, 0xd7, 0xbd, 0x14, 0x41, 0xe6, 0xbc, 0xd5, 0x9c, 0x30, 0xbe,
  0xdc, 0x95, 0x1f, 0xbe, 0x5c, 0xe5, 0xfe, 0x3a, 0xa2, 0xff, 0xbf, 0xbd,
  0xdc, 0xc5, 0x82, 0x3e, 0x0f, 0xda, 0xad, 0xbd, 0xf4, 0x30, 0x15, 0xbe,
  0x1d, 0x5b, 0x3d, 0xbe, 0xb4, 0x0e, 0x98, 0x39, 0x28, 0x96, 0x47, 0xbd,
  0x53, 0x0a, 0xa9, 0x3d, 0x93, 0x10, 0xed, 0xbd, 0xf6, 0xf0, 0x82, 0x3d,
  0x52, 0x30, 0x39, 0xbd, 0x35, 0x7e, 0x21, 0x3e, 0x55, 0x26, 0xee, 0xbd,
  0x6e, 0x77, 0x2d, 0x3d, 0x43, 0xdc, 0x12, 0xbe, 0xd5, 0x2a, 0x70, 0x3c,
  0xb2, 0xf3, 0x17, 0xbe, 0x61, 0x30, 0xc3, 0x3c, 0xed, 0x14, 0x6e, 0xbd,
  0xfe, 0x0f, 0x0d, 0x3e, 0x79, 0x72, 0x7c, 0xbd, 0x19, 0x59, 0x5d, 0xbd,
  0x8d, 0xce, 0x69, 0x3d, 0xbc, 0x27, 0xc1, 0x3d, 0xc0, 0x93, 0xad, 0xbd,
  0x1a, 0xb7, 0xfa, 0xbd, 0x74, 0xf1, 0xec, 0xbd, 0x69, 0xc4, 0xba, 0x3d,
  0x8c, 0x7d, 0x91, 0xbd, 0x9a, 0xcb, 0xf0, 0xbd, 0xb4, 0xa7, 0xc2, 0x3d,
  0xfd, 0x2a, 0x90, 0x3e, 0x31, 0xde, 0x39, 0xbb, 0x21, 0x9c, 0x37, 0xbd,
  0x6f, 0xae, 0xa7, 0xbd, 0x2a, 0x08, 0x30, 0xbe, 0xcb, 0x54, 0x3a, 0x3e,
  0xa3, 0xe0, 0x42, 0x3d, 0x8f, 0x30, 0xa6, 0x3d, 0x40, 0xcb, 0xf7, 0xbd,
  0x77, 0x30, 0x7a, 0xbd, 0xea, 0xc4, 0xe8, 0x3d, 0xd4, 0x3d, 0x1f, 0xbd,
  0x3f, 0xe4, 0x08, 0x3e, 0x52, 0xab, 0x28, 0x3e, 0xd8, 0x24, 0xb8, 0x3d,
  0xc1, 0x95, 0xa0, 0xbc, 0x53, 0x45, 0x11, 0x3e, 0x96, 0xbe, 0x11, 0x3d,
  0x06, 0x97, 0x05, 0x3e, 0xbf, 0x27, 0xca, 0x3b, 0xae, 0xc9, 0x0e, 0xbb,
  0xf4, 0xfb, 0x01, 0x3d, 0x9d, 0x00, 0xa3, 0x3d, 0x82, 0x57, 0xc2, 0xbd,
  0x0c, 0x70, 0x23, 0xbe, 0x37, 0xca, 0x59, 0x3d, 0x31, 0x6e, 0x2e, 0x3e,
  0x8d, 0x83, 0xb0, 0xbd, 0xa0, 0x1f, 0x9a, 0xbd, 0x03, 0xcc, 0xae, 0xbd,
  0x6d, 0xa3, 0xcf, 0xbc, 0xe5, 0xbc, 0xf6, 0xbc, 0xe1, 0x45, 0x06, 0x3e,
  0x24, 0xc5, 0x1b, 0x3e, 0x4a, 0xe7, 0xd9, 0x3c, 0x46, 0xb9, 0xfd, 0x3d,
  0x99, 0x79, 0x02, 0xbe, 0x8f, 0x4b, 0x5f, 0xbd, 0x72, 0x94, 0x44, 0xbe,
  0x75, 0xe8, 0x23, 0xbe, 0x66, 0xa8, 0xfd, 0x3d, 0xc1, 0x5e, 0x0f, 0x3d,
  0xad, 0x51, 0xd9, 0xbd, 0xd9, 0x5a, 0x77, 0x3d, 0xa8, 0xbc, 0xcf, 0xbd,
  0x1c, 0x44, 0x05, 0xbd, 0x21, 0xfc, 0xb8, 0x3d, 0x86, 0x0e, 0xfd, 0x3d,
  0x83, 0xad, 0xf3, 0xbc, 0x0c, 0x72, 0x95, 0xbd, 0x34, 0xf0, 0x19, 0x3d,
  0xb6, 0x86, 0x23, 0x3e, 0x0f, 0x25, 0xc4, 0x3d, 0xda, 0x16, 0xf1, 0x3d,
  0xc6, 0xc0, 0x7e, 0x3c, 0xd0, 0x29, 0x77, 0x3e, 0x39, 0x9b, 0x34, 0x3e,
  0x5f, 0xb8, 0xfe, 0xbd, 0x68, 0x30, 0x1d, 0xbd, 0x12, 0x2f, 0x38, 0x3d,
  0x14, 0xdc, 0xc3, 0xbd, 0x68, 0xaf, 0x38, 0xbe, 0x24, 0x8c, 0x98, 0x3c,
  0x54, 0x14, 0x27, 0x3e, 0xb5, 0xf3, 0x9e, 0xbc, 0x7f, 0xeb, 0xc4, 0xbd,
  0x94, 0x68, 0x8c, 0xbd, 0x54, 0x4d, 0xf5, 0xbd, 0x1f, 0xfe, 0x08, 0x3b,
  0xb4, 0x2f, 0xbe, 0xbd, 0xed, 0xe5, 0x99, 0xbd, 0x5a, 0xd3, 0xef, 0x3c,
  0xb2, 0x34, 0x80, 0x3d, 0x27, 0x71, 0x4e, 0xbe, 0x1f, 0x22, 0x5e, 0xbe,
  0x91, 0x91, 0x71, 0x3e, 0xb0, 0x3d, 0xe5, 0x3c, 0xa1, 0xec, 0xda, 0xbd,
  0x82, 0xd8, 0x1f, 0xbd, 0x90, 0xe5, 0x7a, 0xbd, 0x61, 0x20, 0x5d, 0x3e,
  0xe7, 0x85, 0x0b, 0x3e, 0x12, 0x8b, 0xb6, 0x3d, 0x94, 0xd5, 0x4b, 0xbe,
  0x96, 0x99, 0x1f, 0x3d, 0x4b, 0x4c, 0x5d, 0x3e, 0xbe, 0x0d, 0x1e, 0x3e,
  0x83, 0xa5, 0x21, 0xbe, 0x4d, 0x87, 0x26, 0x3e, 0xc6, 0x9d, 0x25, 0x3d,
  0x7e, 0x9a, 0x12, 0x3d, 0xe0, 0x61, 0x4b, 0xbd, 0x58, 0x0c, 0xe4, 0xbc,
  0xcc, 0x22, 0x30, 0x3e, 0x43, 0x74, 0x3e, 0x3e, 0x54, 0x5e, 0xba, 0x3b,
  0x8e, 0x9a, 0xf4, 0x3d, 0x81, 0xda, 0x1b, 0xbe, 0xea, 0xc7, 0x4a, 0x3e,
  0x83, 0x36, 0x7b, 0x3e, 0x6b, 0x25, 0xb5, 0xbd, 0x0a, 0x88, 0x2f, 0x3b,
  0x77, 0x6c, 0xc4, 0x3b, 0xa6, 0x68, 0xfe, 0xbd, 0x25, 0x51, 0xad, 0x3d,
  0xf5, 0x66, 0x7e, 0x3e, 0x12, 0x08, 0x2c, 0xbe, 0x9e, 0xa5, 0x79, 0xbd,
  0x33, 0xd2, 0x22, 0xbe, 0x09, 0x34, 0xdc, 0x3c, 0x0a, 0x3b, 0x10, 0x3e,
  0xbf, 0xb8, 0xa0, 0xba, 0x56, 0x6c, 0xd5, 0x3d, 0x47, 0x49, 0xdd, 0xbd,
  0xb7, 0x6c, 0x30, 0x3e, 0x53, 0x9f, 0x0c, 0x3e, 0x6b, 0xf8, 0xba, 0xbb,
  0xcf, 0xca, 0x07, 0x3e, 0xe5, 0xe2, 0xfd, 0x3d, 0x96, 0x4c, 0xe3, 0x3d,
  0x6c, 0x5c, 0x78, 0x3e, 0xd1, 0xa6, 0x4d, 0x3d, 0x37, 0x62, 0x95, 0x3c,
  0x2e, 0x4d, 0xe8, 0x3d, 0x73, 0xb0, 0x36, 0x3e, 0x57, 0x40, 0x0f, 0x3d,
  0x16, 0x92, 0xf9, 0x3c, 0x36, 0xe0, 0x4d, 0xbc, 0x94, 0xc9, 0x55, 0x3e,
  0x51, 0x08, 0x0f, 0x3e, 0xf4, 0x3c, 0x03, 0xbe, 0x2b, 0xa6, 0xed, 0xbb,
  0x65, 0x43, 0x48, 0xbb, 0x6a, 0xb5, 0xed, 0xbd, 0x8a, 0xac, 0xdb, 0xbd,
  0x11, 0xd2, 0x26, 0x3c, 0x6f, 0xe5, 0x21, 0xbe, 0x17, 0xc3, 0xc5, 0x3d,
  0x54, 0x51, 0x9f, 0xbd, 0xac, 0x00, 0x61, 0xbd, 0x80, 0xa2, 0xed, 0x3d,
  0xb6, 0x80, 0x37, 0x3d, 0xef, 0xe4, 0xf9, 0xbc, 0xb0, 0x61, 0x0b, 0xbd,
  0xf4, 0xc5, 0xb2, 0x3c, 0xbb, 0x84, 0x0e, 0x3e, 0xb1, 0xd7, 0xa0, 0x3d,
  0xf0, 0x3f, 0x26, 0xbe, 0x75, 0xf0, 0x16, 0x3e, 0xe7, 0xf9, 0x23, 0x3d,
  0x6d, 0x2a, 0x50, 0x3d, 0x7c, 0xd9, 0x3d, 0x3d, 0x7a, 0x78, 0x1c, 0x3e,
  0x30, 0xf9, 0x95, 0xbb, 0x41, 0x1a, 0x6d, 0xbd, 0x88, 0x21, 0xb4, 0xbd,
  0xc6, 0x5c, 0x7e, 0xbd, 0x8f, 0xe9, 0x00, 0xbd, 0xd0, 0x03, 0x25, 0xbe,
  0x07, 0x39, 0x10, 0x3c, 0xea, 0x20, 0x47, 0xbd, 0xa1, 0x40, 0x10, 0xbd,
  0xc7, 0x29, 0x00, 0xbe, 0x97, 0x52, 0xeb, 0xbd, 0x7d, 0x37, 0x80, 0xbe,
  0x62, 0xd7, 0xe9, 0x3b, 0x6a, 0xe0, 0x1f, 0x3e, 0x7e, 0xbf, 0x27, 0xbc,
  0x99, 0xfd, 0x99, 0xbd, 0xd7, 0x91, 0x43, 0xbe, 0x76, 0x91, 0x70, 0x3e,
  0xb7, 0xe8, 0x11, 0x3e, 0x99, 0x6d, 0xae, 0xbd, 0xd6, 0x9d, 0xe7, 0x3d,
  0x54, 0x43, 0xa8, 0x3d, 0x09, 0xf5, 0xc8, 0x3e, 0x39, 0xb7, 0x01, 0xbe,
  0xe1, 0xcb, 0xf6, 0xbd, 0xde, 0x63, 0x11, 0x3d, 0x85, 0xf3, 0xb9, 0xbd,
  0x51, 0xca, 0x7d, 0x3e, 0x8a, 0xb9, 0x90, 0xbc, 0x7e, 0xed, 0x7e, 0xbd,
  0x5f, 0x0c, 0xab, 0xbd, 0x3f, 0xc2, 0xdc, 0xbd, 0x59, 0xaa, 0x1b, 0x3d,
  0xcc, 0x41, 0x0a, 0xbe, 0xa5, 0xd6, 0xc6, 0x3d, 0x44, 0xc3, 0xa4, 0xbd,
  0x72, 0x4d, 0x9e, 0x3d, 0x28, 0x12, 0x83, 0xbe, 0xa7, 0x98, 0xbb, 0x3d,
  0x3a, 0x92, 0x3a, 0xbe, 0x35, 0x65, 0xfd, 0x3b, 0xec, 0x6a, 0xdb, 0xbd,
  0x87, 0x30, 0x7a, 0x3e, 0xb6, 0x47, 0xfa, 0xbd, 0x05, 0x39, 0x7a, 0x3d,
  0x32, 0xa9, 0xa2, 0xbb, 0x94, 0xff, 0x98, 0x3d, 0x62, 0x96, 0xd7, 0x3d,
  0x01, 0xc8, 0xbb, 0xbd, 0x75, 0xc0, 0x13, 0x3e, 0xac, 0xd7, 0xdf, 0xbd,
  0xe2, 0x2b, 0xb8, 0x3d, 0xca, 0x87, 0x90, 0x3e, 0x94, 0x36, 0x58, 0xbd,
  0x63, 0xb2, 0xda, 0x3d, 0xc4, 0x88, 0x43, 0x3e, 0xae, 0x89, 0x59, 0x3e,
  0x7c, 0x3b, 0x8a, 0x3e, 0x0e, 0x17, 0x28, 0x3e, 0x08, 0xef, 0x5a, 0x3d,
  0x94, 0x9a, 0x89, 0xbd, 0xd9, 0x0e, 0xa6, 0x3e, 0xa9, 0x59, 0x94, 0xbd,
  0x45, 0xd3, 0x00, 0x3d, 0x52, 0xa5, 0x33, 0x3e, 0x97, 0xf8, 0xd1, 0xbd,
  0x2e, 0x62, 0x19, 0x3e, 0x11, 0xef, 0x3a, 0xbe, 0x43, 0x9f, 0x25, 0x3e,
  0x34, 0x1b, 0x62, 0x3d, 0x0d, 0x1c, 0x81, 0x3d, 0xd0, 0x34, 0xc4, 0xbc,
  0xc7, 0x39, 0x34, 0x3e, 0x06, 0x8a, 0x1f, 0xbe, 0x82, 0xd8, 0xeb, 0x3d,
  0x6b, 0x64, 0x48, 0xbe, 0x83, 0x0f, 0x75, 0xbc, 0x72, 0x1e, 0x97, 0x3e,
  0x58, 0x47, 0x10, 0xbd, 0xd7, 0x15, 0x6e, 0x3d, 0x78, 0x85, 0x4f, 0xbe,
  0x09, 0xff, 0xfa, 0x3d, 0xc7, 0x99, 0x2b, 0x3e, 0x79, 0x72, 0x16, 0x3d,
  0xca, 0x2d, 0xd8, 0x3d, 0xa8, 0x4b, 0xd3, 0x3d, 0x72, 0xdd, 0xb4, 0x3e,
  0x77, 0x19, 0x89, 0x3e, 0xcb, 0xdb, 0x06, 0x3e, 0x6e, 0xf7, 0x45, 0x3e,
  0x33, 0xb7, 0xa0, 0x3d, 0x1a, 0xaa, 0xaa, 0x3e, 0x7b, 0xe8, 0x9c, 0xbd,
  0xf1, 0x56, 0xb7, 0xbd, 0x9e, 0x16, 0xa7, 0x3d, 0xb8, 0x55, 0x2b, 0x3e,
  0x72, 0x78, 0x01, 0x3d, 0x77, 0x8b, 0xa4, 0xbc, 0x74, 0x69, 0x64, 0x3d,
  0xc7, 0x65, 0x16, 0xbd, 0x84, 0x15, 0x52, 0x3e, 0x79, 0x07, 0x16, 0xbd,
  0x7a, 0xe9, 0x03, 0x3e, 0xa8, 0xef, 0xf1, 0x3d, 0x9d, 0xbc, 0x0d, 0xbd,
  0x0b, 0xa1, 0x69, 0x3d, 0xf0, 0x5b, 0xde, 0x3d, 0xd2, 0x7f, 0x49, 0x3e,
  0x3e, 0x0f, 0x36, 0xbe, 0x3e, 0x17, 0x98, 0xbd, 0x88, 0x1f, 0xed, 0xbd,
  0x93, 0x81, 0x3f, 0x3e, 0x94, 0x07, 0xa7, 0x3d, 0x3d, 0x72, 0x22, 0x3e,
  0x3b, 0x81, 0x06, 0xbd, 0xd4, 0x08, 0xeb, 0x3d, 0x72, 0x93, 0x14, 0x3e,
  0xc0, 0x9b, 0x1e, 0x3c, 0xad, 0xf7, 0x1e, 0x3e, 0x79, 0x98, 0x53, 0x3d,
  0x76, 0x77, 0x12, 0x3d, 0xc2, 0xb2, 0xc1, 0x3e, 0xfa, 0x25, 0xed, 0xbd,
  0xe2, 0xc3, 0x00, 0xbc, 0x4a, 0x78, 0x16, 0x3d, 0x68, 0x98, 0x35, 0x3d,
  0xc1, 0x10, 0x42, 0xbd, 0x16, 0xef, 0x6a, 0xba, 0x4a, 0xa2, 0xe2, 0x3d,
  0xe6, 0xfe, 0xd0, 0xbd, 0x0c, 0xd9, 0x69, 0x3d, 0x6a, 0x5e, 0x55, 0x3d,
  0x03, 0x24, 0x1f, 0xbe, 0x05, 0x8a, 0xfd, 0xbd, 0x32, 0x17, 0x0e, 0x3d,
  0x4c, 0x72, 0x5d, 0x3e, 0xb4, 0x6a, 0x5d, 0xbc, 0xda, 0x20, 0x5c, 0x3c,
  0xa7, 0xe5, 0x20, 0x3e, 0xa4, 0x3e, 0xf0, 0x3d, 0x0f, 0x41, 0x8f, 0x3c,
  0x9a, 0x0b, 0xdc, 0xbd, 0xcc, 0x03, 0x57, 0xbe, 0x72, 0x61, 0x83, 0x3d,
  0xf7, 0x87, 0xc2, 0x3d, 0x98, 0xdc, 0xf5, 0x3d, 0x4b, 0x81, 0xac, 0x3a,
  0x3f, 0x9d, 0xcc, 0xbd, 0xce, 0xbc, 0x18, 0xbe, 0x5f, 0xc1, 0xa1, 0x3d,
  0xad, 0xbb, 0x26, 0x3e, 0x57, 0x4d, 0x46, 0x3e, 0x1d, 0x65, 0x20, 0xbd,
  0xff, 0x04, 0x15, 0x3d, 0xb5, 0x36, 0x61, 0x3d, 0x7c, 0xe1, 0xf3, 0x3d,
  0xa5, 0x50, 0x63, 0xbc, 0x7b, 0x38, 0x44, 0x3d, 0xed, 0xb9, 0x59, 0x3d,
  0xfd, 0x2b, 0xaa, 0x3c, 0x04, 0x9a, 0xfb, 0xbd, 0x01, 0xf2, 0xcc, 0xbd,
  0x06, 0x47, 0x29, 0xbe, 0x75, 0xc5, 0x6b, 0xbc, 0x1c, 0x92, 0x86, 0x3c,
  0x3d, 0xc9, 0xa9, 0x3d, 0x73, 0x51, 0x60, 0xbd, 0x4a, 0x3b, 0xa3, 0x3c,
  0xa7, 0x85, 0x87, 0xbd, 0x63, 0xd7, 0x6f, 0xbd, 0x0a, 0xc5, 0xdb, 0xba,
  0x4d, 0xff, 0xfc, 0xbd, 0xe7, 0xde, 0xc5, 0x3d, 0x23, 0x5e, 0x21, 0xbd,
  0x09, 0xac, 0xa6, 0x3d, 0x13, 0xf6, 0x0c, 0xbe, 0x6a, 0x2a, 0x1e, 0xbd,
  0x68, 0x93, 0x74, 0x3c, 0x90, 0x12, 0xa2, 0x3d, 0x6b, 0x55, 0xa7, 0xbc,
  0x08, 0x71, 0xa9, 0x3d, 0x2f, 0x7b, 0xc0, 0xbc, 0x24, 0xb6, 0x10, 0xbe,
  0x46, 0xfd, 0x87, 0xbd, 0xda, 0x9f, 0x57, 0xbe, 0x85, 0x90, 0x42, 0x3d,
  0x90, 0x7a, 0x31, 0xbe, 0x69, 0xee, 0x76, 0xbd, 0x44, 0x7f, 0x8f, 0xbd,
  0x68, 0x67, 0x08, 0xbe, 0xd0, 0xf7, 0x1e, 0x3e, 0x14, 0x2d, 0x57, 0x3d,
  0x4d, 0x98, 0x16, 0x3d, 0xdb, 0x47, 0xce, 0x3d, 0x54, 0x74, 0x5b, 0x3d,
  0xc4, 0x8d, 0x10, 0x3d, 0xf7, 0x42, 0x26, 0x3d, 0xa8, 0x01, 0x27, 0xbd,
  0x9e, 0x33, 0x11, 0xbe, 0x0d, 0x66, 0x65, 0xbd, 0x08, 0xe2, 0xcc, 0x3d,
  0x64, 0x8c, 0x70, 0x3d, 0x60, 0xc6, 0x54, 0xbd, 0x3d, 0x13, 0x1b, 0x3e,
  0xff, 0xae, 0x09, 0xbe, 0x60, 0x61, 0xa0, 0x3d, 0xe9, 0xfa, 0xf3, 0x3d,
  0x89, 0x28, 0x3a, 0x3e, 0xb6, 0x54, 0x26, 0xbe, 0xf0, 0x65, 0xb8, 0x3d,
  0x57, 0x35, 0x24, 0xbe, 0x8e, 0x48, 0x86, 0x3d, 0x1e, 0x30, 0x3c, 0x3e,
  0x17, 0xb7, 0x94, 0xbc, 0xde, 0xf2, 0xee, 0x3d, 0xcc, 0x28, 0x96, 0xbd,
  0xfe, 0xe3, 0xd8, 0x3d, 0x1e, 0x39, 0x3e, 0xbd, 0x84, 0x55, 0x16, 0x3e,
  0xd8, 0x0b, 0xe0, 0x3d, 0xe8, 0x0e, 0x06, 0xbb, 0x60, 0x16, 0x15, 0xbe,
  0xc2, 0xb3, 0x94, 0xbd, 0xba, 0x6c, 0x35, 0xbc, 0x26, 0xde, 0xa2, 0xbd,
  0x4c, 0x9a, 0x37, 0x3e, 0xaf, 0x0c, 0xad, 0x3d, 0x7e, 0x0c, 0x39, 0xbe,
  0xa2, 0x71, 0x2c, 0x3e, 0x3c, 0x67, 0x4b, 0xbe, 0xd8, 0xa2, 0xf8, 0x3d,
  0xec, 0x64, 0x9b, 0x3d, 0x26, 0xb1, 0xdd, 0x3d, 0x5a, 0xcd, 0x1c, 0xbe,
  0xbd, 0x9b, 0xcd, 0xbd, 0xe9, 0xf4, 0x9e, 0xbd, 0x6f, 0x0f, 0xaf, 0xbd,
  0x0a, 0x74, 0x4a, 0xbe, 0xeb, 0x55, 0xa5, 0xbd, 0x88, 0xd8, 0x3c, 0xbe,
  0xe7, 0x6a, 0x29, 0xbe, 0x59, 0xfc, 0x2e, 0xbd, 0x19, 0xf4, 0xd7, 0xbd,
  0x4f, 0xad, 0x2e, 0x3e, 0x15, 0xb4, 0xfb, 0xbd, 0x83, 0x77, 0xd6, 0xbd,
  0xc9, 0x1a, 0xde, 0xbd, 0xb4, 0x76, 0x65, 0x3e, 0xec, 0x96, 0x16, 0xbe,
  0xa0, 0x12, 0x3d, 0xbe, 0xa6, 0x95, 0x31, 0xbe, 0x7b, 0xc9, 0x1f, 0xbe,
  0x1d, 0x3e, 0xd2, 0xbd, 0x36, 0x84, 0xbc, 0x3d, 0x82, 0xcf, 0x8d, 0xbb,
  0x1e, 0xb8, 0xb5, 0x3d, 0x37, 0x1e, 0x91, 0xbd, 0xdc, 0xa9, 0x0c, 0xbe,
  0x38, 0xbc, 0x4d, 0x3c, 0x43, 0x70, 0x33, 0x3d, 0x58, 0xd7, 0xf3, 0xbd,
  0xcc, 0xdf, 0x90, 0xbc, 0xec, 0xa6, 0x34, 0x3e, 0xdb, 0x99, 0x2f, 0xbe,
  0xde, 0xac, 0xb7, 0x3d, 0x27, 0x83, 0xc9, 0xbb, 0xf9, 0x56, 0xb2, 0x3d,
  0x42, 0x85, 0xc2, 0x3d, 0x78, 0x34, 0x25, 0xbe, 0x8c, 0xa3, 0x61, 0xbd,
  0xb1, 0x80, 0x71, 0x3d, 0x5d, 0x73, 0x68, 0xbb, 0x22, 0xe6, 0x4a, 0xbe,
  0x9f, 0xec, 0x25, 0x3e, 0x11, 0x76, 0x01, 0x3e, 0x11, 0xd1, 0xb9, 0x3c,
  0x57, 0x15, 0xe2, 0x3c, 0x31, 0xfb, 0x5b, 0xbc, 0x30, 0x97, 0xb1, 0x3d,
  0x60, 0x70, 0xa4, 0x3d, 0x52, 0x64, 0x71, 0xbd, 0xc0, 0xf6, 0x80, 0xbd,
  0x52, 0x45, 0x78, 0xbd, 0x99, 0x3c, 0x1e, 0x3e, 0x35, 0x3a, 0x02, 0x3e,
  0x3d, 0xe8, 0xdc, 0xbc, 0x66, 0x55, 0xa5, 0x3c, 0x20, 0xa7, 0x84, 0xbd,
  0x55, 0x8e, 0x2c, 0x3e, 0x1b, 0x09, 0x3b, 0xbe, 0x3c, 0x00, 0x93, 0x3c,
  0x40, 0x72, 0xcf, 0x3d, 0xf4, 0x4e, 0x91, 0x3d, 0x42, 0x5c, 0xc7, 0x3d,
  0xd2, 0x50, 0x9d, 0x3c, 0x93, 0x0c, 0x03, 0xbe, 0xdd, 0x25, 0x23, 0xbe,
  0x6d, 0x79, 0x02, 0x3c, 0x10, 0x8c, 0x83, 0x3d, 0xa7, 0xc1, 0x07, 0x3e,
  0x53, 0x53, 0x88, 0x3d, 0xc5, 0x46, 0x2b, 0xbe, 0x96, 0x33, 0x99, 0xbc,
  0x2a, 0xf8, 0xef, 0xbb, 0xa6, 0x9b, 0xf6, 0xbd, 0x79, 0x68, 0x13, 0x3d,
  0xb1, 0xc3, 0x55, 0x3d, 0x98, 0x4b, 0x10, 0xbd, 0x3c, 0x45, 0x01, 0x3d,
  0x62, 0x76, 0x27, 0xbe, 0x73, 0x00, 0x0b, 0xbe, 0x95, 0xf1, 0x5f, 0xbe,
  0xb5, 0x1e, 0x2d, 0x3e, 0xac, 0x89, 0x1b, 0xbe, 0x50, 0x84, 0x21, 0x3d,
  0x40, 0xa4, 0x1b, 0xbd, 0x89, 0xe3, 0x53, 0xbd, 0xfc, 0xde, 0x76, 0x3e,
  0x5b, 0xd4, 0x50, 0xbd, 0x60, 0xf5, 0x05, 0x3e, 0x46, 0x9f, 0x2d, 0xbe,
  0xba, 0x4d, 0xa2, 0x3d, 0x6d, 0xd2, 0x84, 0xbd, 0x11, 0x0d, 0x4d, 0x3d,
  0x95, 0xc4, 0x7d, 0x3d, 0xca, 0xf4, 0x48, 0xbd, 0x68, 0x65, 0xec, 0x3d,
  0x57, 0x81, 0x8a, 0x3e, 0x93, 0x19, 0x47, 0x3d, 0xfa, 0xd5, 0xe2, 0x3d,
  0x7e, 0xc2, 0xa7, 0xbd, 0xa4, 0x49, 0x77, 0xbc, 0xa8, 0x9c, 0xb9, 0x3d,
  0x54, 0x7f, 0xbe, 0x3c, 0xf8, 0x11, 0x89, 0x3c, 0x96, 0x61, 0xd4, 0xbd,
  0xa7, 0x76, 0x51, 0x3e, 0x3b, 0x27, 0xa1, 0xbd, 0xed, 0xe0, 0x0a, 0x3e,
  0x10, 0xe0, 0x0c, 0x3e, 0x8f, 0x55, 0x1a, 0xbe, 0x43, 0xbc, 0x30, 0xbd,
  0x01, 0xf2, 0x03, 0x3e, 0xb0, 0xa4, 0x42, 0x3c, 0x7b, 0x7f, 0x10, 0x3d,
  0x28, 0xc4, 0x09, 0x3e, 0x3a, 0x1e, 0x9c, 0xbd, 0x6f, 0x21, 0xa8, 0xbc,
  0x36, 0x70, 0x2b, 0xbe, 0x7b, 0xd3, 0xde, 0x3b, 0x1e, 0x44, 0xc8, 0x3c,
  0xf0, 0x26, 0x10, 0x3e, 0x11, 0x81, 0x06, 0x3e, 0x7e, 0xf0, 0x3b, 0xbe,
  0xce, 0x27, 0xc1, 0x3d, 0x8a, 0xa4, 0xb7, 0x3d, 0x37, 0x1b, 0x72, 0xbd,
  0x42, 0xe7, 0x3f, 0x3d, 0xe9, 0xda, 0x2c, 0x3e, 0x40, 0xe0, 0x19, 0x3e,
  0x86, 0xf7, 0x08, 0x3e, 0x38, 0x39, 0xa2, 0x3c, 0x68, 0xfe, 0x10, 0xbd,
  0x66, 0x92, 0xd4, 0xbd, 0xba, 0x69, 0x2a, 0x3d, 0xe3, 0xd2, 0x4e, 0x3e,
  0x50, 0x18, 0x3a, 0x3d, 0x94, 0x69, 0x4e, 0xbe, 0x1b, 0xd1, 0x03, 0xbe,
  0x62, 0xda, 0xe6, 0xbd, 0x54, 0xa2, 0x29, 0x3c, 0x61, 0x34, 0x92, 0xbe,
  0x05, 0x4f, 0x21, 0x3e, 0x20, 0x71, 0x3b, 0xbe, 0x57, 0xea, 0xe1, 0x3d,
  0x5a, 0x28, 0x2b, 0xbd, 0x71, 0x51, 0xdb, 0x3d, 0x42, 0x21, 0x8a, 0x3e,
  0x26, 0x8f, 0x40, 0x3d, 0xff, 0xd9, 0x94, 0x3e, 0x9f, 0x9c, 0x15, 0x3e,
  0x5b, 0xa8, 0x28, 0x3e, 0x4a, 0x62, 0x07, 0x3e, 0x54, 0x78, 0x2a, 0xbe,
  0x85, 0xba, 0x99, 0xbd, 0x98, 0x1e, 0x64, 0xbd, 0x48, 0x1d, 0xb6, 0xbc,
  0x19, 0x31, 0x6c, 0xbe, 0xcf, 0x11, 0x3a, 0xbe, 0x8c, 0x0c, 0x97, 0xbc,
  0x34, 0x49, 0xaa, 0x3d, 0x82, 0x91, 0x03, 0x3e, 0x7e, 0x0c, 0x80, 0xbd,
  0xaf, 0xf5, 0x01, 0xbd, 0x9e, 0xfa, 0xcf, 0xbc, 0xa8, 0x9f, 0x8e, 0x3d,
  0xd4, 0x57, 0x75, 0x3e, 0xa2, 0xfe, 0x64, 0xbe, 0x22, 0x1d, 0x0a, 0x3e,
  0x86, 0x68, 0x2c, 0x3e, 0x88, 0x63, 0xa0, 0xbe, 0x01, 0x98, 0x36, 0xbd,
  0x16, 0xb2, 0x1c, 0x3e, 0x70, 0x7e, 0xf8, 0x3d, 0xed, 0x06, 0x14, 0xbe,
  0x47, 0x77, 0x66, 0xbd, 0xa1, 0x8c, 0x27, 0x3e, 0xab, 0x95, 0x71, 0x3d,
  0x99, 0x45, 0x9d, 0xbd, 0xa3, 0xf8, 0x23, 0x3e, 0x9d, 0xf1, 0x65, 0xb9,
  0xdb, 0x5d, 0x0b, 0xbc, 0xb4, 0x8e, 0x82, 0xbb, 0xdd, 0xe4, 0x8f, 0x3d,
  0xeb, 0x04, 0x31, 0x3e, 0x4e, 0xa7, 0x3c, 0xbd, 0x71, 0x76, 0x8b, 0xbd,
  0xd1, 0x51, 0xe5, 0x3d, 0x7f, 0xb7, 0x42, 0x3d, 0x74, 0x27, 0xc2, 0xbd,
  0xd9, 0xf4, 0x25, 0x3d, 0xb1, 0x68, 0x4e, 0x3e, 0x62, 0x82, 0x70, 0xbe,
  0x0c, 0xb0, 0x5b, 0xbd, 0x20, 0x50, 0xdf, 0xbb, 0xf9, 0x18, 0x22, 0xbd,
  0x3a, 0x65, 0x92, 0x3e, 0x11, 0x25, 0x90, 0xbe, 0x03, 0x5b, 0x60, 0x3d,
  0xe5, 0x23, 0x0d, 0x3e, 0x46, 0x55, 0x4a, 0xbd, 0xcc, 0xcd, 0xc4, 0xbd,
  0x57, 0xe5, 0xa9, 0x3e, 0x12, 0xb7, 0x00, 0x3e, 0x01, 0xa2, 0x94, 0xbd,
  0x3d, 0x06, 0x4d, 0x3e, 0x16, 0xba, 0x0a, 0x3e, 0xa4, 0x59, 0xd2, 0xbd,
  0xef, 0x13, 0x15, 0x3e, 0x29, 0xd8, 0x73, 0xbd, 0x1c, 0x55, 0x22, 0xbe,
  0xc9, 0xfa, 0xcd, 0x3d, 0x95, 0xa4, 0x9a, 0xbe, 0xaf, 0xa6, 0x0d, 0xbe,
  0x75, 0xff, 0x36, 0x3e, 0x93, 0x6c, 0x40, 0xbd, 0xa0, 0xdd, 0xc8, 0x3d,
  0x02, 0x89, 0x51, 0x3e, 0x84, 0x30, 0xc7, 0x3d, 0x0e, 0x26, 0x97, 0xbc,
  0x8b, 0x0a, 0x08, 0xbd, 0xc1, 0xf1, 0xb1, 0x3c, 0xde, 0x16, 0x83, 0x3e,
  0x56, 0xdb, 0x57, 0xbd, 0xcb, 0xc8, 0xc5, 0x3c, 0x14, 0x43, 0x7f, 0xbd,
  0xb2, 0xbd, 0x0a, 0x3d, 0x4a, 0x98, 0x7a, 0xbd, 0xee, 0xec, 0xb5, 0xbc,
  0xd4, 0xe2, 0x86, 0x3d, 0xeb, 0x6c, 0x13, 0x3c, 0x56, 0x4e, 0x61, 0x3e,
  0x1e, 0xd5, 0x3d, 0x3d, 0xfa, 0xdc, 0x9b, 0x3d, 0xa9, 0x77, 0x0e, 0xbe,
  0xab, 0xcb, 0xbf, 0x3c, 0x1c, 0xcd, 0x3a, 0x3e, 0xa9, 0xa0, 0xc8, 0xbd,
  0x0c, 0xd2, 0x0b, 0xbe, 0x74, 0x9f, 0x80, 0xbd, 0x0d, 0xe4, 0xab, 0xbb,
  0xd7, 0xf1, 0xf2, 0x3d, 0x54, 0xde, 0xaf, 0x3d, 0xd6, 0xdd, 0xac, 0x3c,
  0xf6, 0x1e, 0x2d, 0xbd, 0xbf, 0xb9, 0x2d, 0x3d, 0x10, 0x2f, 0x6b, 0x3e,
  0xa1, 0xb6, 0x30, 0xbe, 0xef, 0x2e, 0x26, 0xbe, 0x1d, 0xbf, 0x7b, 0xbd,
  0xd0, 0xe0, 0xf3, 0x3d, 0x28, 0x86, 0xb5, 0xbd, 0x28, 0x3b, 0x9f, 0x3c,
  0xfc, 0x9b, 0x30, 0xbe, 0x7a, 0x70, 0x4a, 0x3e, 0xfd, 0x3c, 0x86, 0x3c,
  0x62, 0xff, 0xee, 0xbd, 0x4a, 0xf6, 0xb6, 0x3e, 0x6e, 0x81, 0x58, 0xbd,
  0x79, 0xae, 0xad, 0x3d, 0x47, 0xd5, 0xbf, 0xbc, 0x5a, 0x50, 0xae, 0xba,
  0x46, 0x35, 0x78, 0xbe, 0xca, 0x27, 0x26, 0xbd, 0x01, 0xac, 0x24, 0xbe,
  0xb9, 0x82, 0xfe, 0x3d, 0x37, 0x6a, 0x77, 0x3c, 0x22, 0x48, 0x9b, 0xbe,
  0x4e, 0x77, 0x24, 0xbd, 0xd8, 0x9b, 0x2d, 0xbe, 0x05, 0xd9, 0xa5, 0x3d,
  0x4a, 0xbb, 0xc6, 0xbd, 0x9b, 0x17, 0x19, 0xbe, 0x76, 0x42, 0x47, 0x3c,
  0x12, 0x10, 0xfe, 0xbb, 0x9a, 0xb4, 0x30, 0x3e, 0x99, 0xed, 0xfb, 0xbd,
  0x32, 0xd7, 0xae, 0xbe, 0xae, 0x68, 0x03, 0xba, 0x7e, 0xc7, 0x13, 0x3d,
  0xf0, 0xb4, 0x86, 0x3c, 0x29, 0x50, 0xb8, 0xbd, 0xba, 0x31, 0xfe, 0x3c,
  0x85, 0xb4, 0x3b, 0xbe, 0x60, 0xb0, 0x62, 0x3d, 0xa9, 0xa6, 0xb8, 0x3c,
  0x78, 0xad, 0x72, 0xbe, 0xfe, 0x7b, 0x5c, 0x3e, 0xf7, 0x16, 0x0d, 0x3e,
  0x25, 0xa3, 0x12, 0x3c, 0xfd, 0x27, 0x8d, 0x3d, 0xf1, 0x2e, 0x71, 0x3b,
  0xcb, 0xee, 0x62, 0xbb, 0x5c, 0x47, 0x21, 0x3e, 0xe1, 0x93, 0x20, 0x3d,
  0xf8, 0x5d, 0xf3, 0x3d, 0x7a, 0x46, 0xa7, 0x3d, 0x39, 0x75, 0x48, 0xbd,
  0x59, 0xa8, 0x23, 0x3d, 0x17, 0xb9, 0xa9, 0x3d, 0x45, 0x93, 0xa5, 0xbd,
  0xfb, 0x02, 0xc4, 0x3d, 0xd5, 0xfd, 0x0a, 0x3d, 0x77, 0x20, 0x16, 0xbe,
  0x71, 0xd0, 0x09, 0x3d, 0xed, 0x6d, 0xd0, 0x3d, 0xae, 0x71, 0x29, 0x3e,
  0xcc, 0x0f, 0xf3, 0x3d, 0x0b, 0x79, 0xc0, 0x3d, 0x3d, 0xf6, 0xfc, 0x3d,
  0xc0, 0x29, 0x54, 0xbc, 0xb0, 0x70, 0x63, 0x3e, 0xee, 0x14, 0x47, 0x3e,
  0x98, 0xc3, 0x93, 0x3c, 0x70, 0x4f, 0x0e, 0x3e, 0x17, 0xeb, 0x4d, 0xbd,
  0xf1, 0xdc, 0xf4, 0x3d, 0xee, 0xbf, 0xce, 0x3d, 0xce, 0x0f, 0xca, 0x3d,
  0xc2, 0x4e, 0x27, 0x3d, 0x43, 0xe1, 0x89, 0x3e, 0x26, 0x6f, 0x7b, 0x3e,
  0x5a, 0xf7, 0x00, 0xbd, 0x04, 0xee, 0x08, 0x3e, 0xbd, 0x24, 0x9b, 0x3d,
  0x72, 0x75, 0xbc, 0xbc, 0x36, 0x90, 0x58, 0x3e, 0x85, 0x8f, 0xdb, 0xbd,
  0x58, 0xb7, 0x2b, 0x3e, 0xd7, 0x5a, 0x34, 0x3d, 0x7b, 0xb3, 0x05, 0x3e,
  0x07, 0x7e, 0xf2, 0x3d, 0x72, 0x56, 0x3a, 0xbe, 0xec, 0xb3, 0x24, 0xbe,
  0xe9, 0x10, 0x18, 0xbe, 0xb8, 0x43, 0xaf, 0x3d, 0x53, 0x62, 0x09, 0x3b,
  0x40, 0x04, 0x0e, 0xbe, 0x5d, 0x3b, 0x2e, 0x3e, 0x5c, 0x19, 0x72, 0x3d,
  0x6b, 0x93, 0x84, 0xbd, 0xdc, 0x41, 0xd9, 0x3d, 0x1c, 0xd5, 0xab, 0xbd,
  0x2e, 0xf8, 0x9f, 0xbc, 0x20, 0xe9, 0xda, 0xbd, 0x30, 0xb1, 0xc2, 0xbd,
  0xac, 0x65, 0x9a, 0x3d, 0x53, 0x1a, 0x82, 0x3e, 0x90, 0xde, 0x16, 0xbe,
  0xd9, 0xa2, 0xcc, 0x3d, 0x45, 0x58, 0xeb, 0x3d, 0xdc, 0x3f, 0x68, 0x3e,
  0x4d, 0x23, 0x11, 0xbd, 0x18, 0x75, 0xce, 0xbd, 0xa1, 0x00, 0x14, 0x3d,
  0x9e, 0x2e, 0x90, 0x3a, 0xd2, 0x60, 0xff, 0x3c, 0xb2, 0x95, 0x67, 0xbe,
  0x47, 0x26, 0x17, 0x3e, 0x2e, 0x67, 0x10, 0xbc, 0x8f, 0x47, 0xb9, 0xbd,
  0x02, 0xa8, 0xd2, 0xba, 0xe0, 0x12, 0x87, 0xbe, 0x8f, 0xb2, 0xeb, 0x3c,
  0x02, 0x79, 0x91, 0x3b, 0x30, 0x95, 0x29, 0xbe, 0xdb, 0x79, 0x01, 0xbe,
  0xd3, 0xad, 0x93, 0xbe, 0x67, 0x0f, 0x24, 0x3e, 0x09, 0x49, 0x1f, 0xbe,
  0xe2, 0x1f, 0xba, 0xbb, 0x71, 0x1e, 0x6e, 0xbe, 0x8b, 0x2c, 0xdd, 0xbd,
  0xfd, 0x47, 0x01, 0x3e, 0x1e, 0x96, 0x05, 0x3e, 0x33, 0xd4, 0x07, 0xbe,
  0x79, 0x58, 0x34, 0xbe, 0x45, 0xe4, 0xb8, 0x3d, 0xfb, 0x8a, 0xbd, 0x3d,
  0x05, 0xd7, 0xe4, 0x3d, 0x2b, 0x1b, 0x26, 0x3d, 0xc5, 0x01, 0x38, 0x3e,
  0x10, 0x13, 0xd0, 0xbd, 0xc6, 0xf8, 0x17, 0xbe, 0xfb, 0x04, 0x3d, 0x3e,
  0x31, 0xb4, 0x2d, 0x3e, 0x98, 0xea, 0xa7, 0x3d, 0xa4, 0xa0, 0x01, 0xbd,
  0x29, 0x84, 0x37, 0x3d, 0xc0, 0x8f, 0x98, 0x3b, 0x45, 0x6a, 0x07, 0x3e,
  0x20, 0x7d, 0x8f, 0xbd, 0xfd, 0xc5, 0x14, 0xbe, 0x0f, 0x54, 0x8d, 0x3d,
  0x83, 0x08, 0x5f, 0xbe, 0xe9, 0x76, 0x35, 0x3d, 0x3c, 0xa7, 0xaa, 0xbe,
  0xe9, 0x4e, 0x74, 0xbe, 0x2c, 0x10, 0x27, 0xbe, 0xfe, 0x9b, 0x0a, 0xba,
  0xb1, 0x68, 0x10, 0x3c, 0x61, 0xb4, 0xa2, 0xbe, 0xcf, 0x5e, 0x5b, 0x3e,
  0x43, 0xc5, 0xf4, 0xbc, 0xfb, 0x48, 0x63, 0xbe, 0x7b, 0x16, 0x0a, 0xbd,
  0xbe, 0x97, 0x61, 0xbe, 0x5e, 0x4f, 0x41, 0x3e, 0xef, 0x90, 0xfa, 0x3d,
  0x67, 0xf2, 0xcc, 0x3d, 0xb7, 0x83, 0x2a, 0xbe, 0x58, 0x1b, 0xc0, 0xbd,
  0xc3, 0xef, 0x0b, 0x3d, 0x69, 0xb2, 0x67, 0x3d, 0x86, 0xa6, 0xef, 0x3d,
  0x1e, 0xd4, 0xb0, 0xbd, 0x78, 0xbb, 0x2a, 0x3e, 0x5d, 0xdc, 0xae, 0xbd,
  0x94, 0x4f, 0x18, 0x3d, 0x2a, 0x9e, 0x81, 0x3c, 0xf9, 0x1e, 0x54, 0x3e,
  0xf4, 0xfb, 0xdb, 0xbb, 0x92, 0x47, 0x54, 0xbe, 0x9f, 0xb6, 0xa7, 0xbd,
  0x22, 0xec, 0x02, 0xbe, 0xd6, 0xc7, 0x49, 0x3c, 0xe5, 0xdb, 0x36, 0xbe,
  0xaf, 0xa2, 0xb8, 0xbd, 0x83, 0xff, 0xab, 0x3d, 0x37, 0x4b, 0xaf, 0xbc,
  0xf8, 0xf2, 0xab, 0xbd, 0xcf, 0xed, 0x94, 0xbe, 0x14, 0xba, 0x19, 0x3e,
  0x47, 0xf5, 0x8a, 0x3d, 0x44, 0x2e, 0x46, 0xbe, 0xf6, 0xdd, 0xde, 0x3d,
  0x13, 0x1e, 0xd2, 0xbd, 0xbc, 0x15, 0xdb, 0x3d, 0x7c, 0xb5, 0x1d, 0x3e,
  0x89, 0x3c, 0x9e, 0xbd, 0x50, 0x88, 0x95, 0x3c, 0x86, 0xca, 0x01, 0xbd,
  0x55, 0x01, 0xc6, 0x3d, 0xd3, 0x6d, 0xe0, 0xbd, 0x21, 0x94, 0xea, 0xbb,
  0xbf, 0xd1, 0xeb, 0xbd, 0x9f, 0x0e, 0xdf, 0xbd, 0x5e, 0xc8, 0x29, 0x3d,
  0xe1, 0xfe, 0x27, 0x3e, 0x0a, 0xe5, 0xe6, 0xbd, 0xc9, 0x5d, 0x39, 0xbc,
  0xae, 0x2e, 0xc9, 0xbc, 0xad, 0x90, 0xcf, 0x3d, 0x56, 0x77, 0x0c, 0x3e,
  0xf0, 0x9a, 0xb6, 0x3c, 0xb5, 0x6a, 0x74, 0x3b, 0x3b, 0x50, 0xc6, 0xbd,
  0xeb, 0xda, 0x80, 0x3e, 0xc6, 0x0b, 0x04, 0x3e, 0xb1, 0x45, 0x84, 0x3d,
  0x79, 0xe6, 0x16, 0xbd, 0x06, 0xb4, 0x97, 0xbd, 0x00, 0xe9, 0x1c, 0x3e,
  0xe0, 0x34, 0xc3, 0xbd, 0xd6, 0x56, 0x0d, 0x3e, 0xc0, 0xa0, 0x9a, 0x3c,
  0xc4, 0x48, 0xfe, 0xbd, 0x74, 0x1c, 0xc3, 0xbd, 0x31, 0xc5, 0xeb, 0xbd,
  0x0e, 0x88, 0xcd, 0xbd, 0x68, 0x92, 0x57, 0x3d, 0x38, 0x4f, 0x0b, 0xbe,
  0x53, 0xb2, 0xd8, 0xbc, 0xa2, 0x59, 0x47, 0xbd, 0x99, 0x59, 0xd8, 0xbc,
  0x49, 0xac, 0x8c, 0x3c, 0xc1, 0xfd, 0x1c, 0xbe, 0x26, 0x14, 0x80, 0x3d,
  0x68, 0xbc, 0xae, 0xbd, 0x33, 0x30, 0x5e, 0xbd, 0x4f, 0xcf, 0x20, 0xbe,
  0xb6, 0x2d, 0xb3, 0xbd, 0xb3, 0x07, 0x0d, 0xbc, 0x2f, 0x84, 0x9d, 0xbd,
  0x73, 0xe3, 0x54, 0x3d, 0x33, 0x0a, 0xdf, 0xbc, 0x4e, 0x8e, 0x8d, 0xbd,
  0xe1, 0x82, 0x3d, 0xbc, 0x67, 0xdc, 0xbc, 0x3d, 0xa4, 0xe2, 0x0c, 0x3e,
  0x28, 0x03, 0x84, 0x3d, 0x20, 0x0c, 0x85, 0x3c, 0x1c, 0xf8, 0xd6, 0x3d,
  0x8c, 0xf7, 0xce, 0x3d, 0xed, 0x4c, 0x44, 0xbd, 0xc5, 0x3f, 0xe0, 0x3c,
  0xd3, 0xd3, 0xa2, 0x3c, 0x78, 0x40, 0xad, 0xb9, 0x4b, 0x08, 0x8f, 0xbd,
  0x55, 0x66, 0x3f, 0xbe, 0x52, 0x7b, 0xc3, 0x3c, 0x34, 0xb8, 0xb2, 0xbc,
  0x5d, 0x20, 0xea, 0xbd, 0x8b, 0xdd, 0xff, 0x3d, 0x06, 0x58, 0x14, 0xbe,
  0xd0, 0x28, 0x50, 0xbd, 0xcc, 0x09, 0x2c, 0x3c, 0x5c, 0xfa, 0x48, 0xbc,
  0x1c, 0x9d, 0x69, 0x3d, 0x34, 0xbc, 0x5a, 0x3d, 0x84, 0x49, 0x81, 0x3d,
  0x8e, 0x09, 0x7a, 0xbd, 0xf8, 0x3d, 0x3b, 0x3e, 0x15, 0x4f, 0x1e, 0x3e,
  0x9a, 0x4b, 0x45, 0xbc, 0x9a, 0x84, 0x38, 0xbd, 0x0e, 0x7d, 0xfe, 0xbd,
  0x55, 0xcd, 0x49, 0x3e, 0x0d, 0x27, 0xb7, 0xbd, 0xb0, 0xd6, 0xf6, 0x3d,
  0xb6, 0x96, 0x16, 0xbe, 0x49, 0x96, 0x95, 0xbc, 0x50, 0x57, 0x1e, 0x3e,
  0xfa, 0xfa, 0xb9, 0x3d, 0xd7, 0x98, 0x25, 0xbd, 0x3d, 0xa7, 0x51, 0xbe,
  0xe8, 0x4b, 0xb6, 0xbd, 0x12, 0x4e, 0x16, 0xbe, 0x01, 0xdc, 0x06, 0xbd,
  0xb5, 0xc7, 0xf0, 0xbc, 0xde, 0x60, 0x28, 0xbd, 0x2c, 0xc2, 0x2b, 0xbd,
  0xbb, 0xad, 0xb7, 0xbb, 0xee, 0x0d, 0xe5, 0x3d, 0x6a, 0x15, 0x5b, 0x3d,
  0xc9, 0x14, 0xb0, 0x3b, 0x45, 0x8f, 0x4d, 0xbd, 0x55, 0x18, 0x1a, 0x3e,
  0x8e, 0xb4, 0xb6, 0xbc, 0xd6, 0x65, 0xd5, 0xbd, 0x44, 0x23, 0x3e, 0xbe,
  0x03, 0xac, 0x22, 0x3d, 0x46, 0xf7, 0xda, 0x3e, 0xce, 0x4c, 0xc2, 0x3d,
  0x4c, 0xbb, 0x6a, 0x3d, 0x50, 0x88, 0xc0, 0xbd, 0x58, 0xa0, 0x66, 0x3e,
  0x98, 0x80, 0x41, 0x3e, 0x7d, 0x88, 0x18, 0x3e, 0x3e, 0xfe, 0xe4, 0x3d,
  0xcc, 0x85, 0x0b, 0x3e, 0x03, 0xda, 0x1b, 0x3d, 0xa3, 0x17, 0xe6, 0xbd,
  0x84, 0x86, 0x19, 0x3e, 0x78, 0x5b, 0xa3, 0xbc, 0x74, 0xe1, 0x13, 0x3e,
  0x23, 0x8a, 0x87, 0x3d, 0xbe, 0xdc, 0x52, 0xbc, 0x3c, 0xba, 0x0d, 0x3e,
  0xfe, 0xfe, 0x23, 0xbd, 0x14, 0x09, 0xa6, 0x3d, 0xf5, 0x61, 0x37, 0xbe,
  0xad, 0x38, 0x31, 0x3e, 0x6d, 0x36, 0x4f, 0x3d, 0xef, 0xe6, 0x84, 0x3d,
  0xba, 0x5a, 0x8c, 0xbd, 0x3f, 0x81, 0x6e, 0xbc, 0x12, 0x97, 0x2b, 0x3e,
  0x92, 0x9f, 0xda, 0x3c, 0xbb, 0x32, 0x85, 0x3c, 0x0e, 0x46, 0x77, 0xbd,
  0x23, 0x84, 0x83, 0x3d, 0x48, 0x66, 0xb6, 0x3e, 0x9c, 0x27, 0x08, 0xbd,
  0x90, 0xdc, 0x94, 0xbd, 0xe7, 0x41, 0x98, 0xbd, 0x95, 0x8c, 0xcf, 0x3d,
  0xea, 0xc9, 0x82, 0x3e, 0x57, 0xf2, 0x9c, 0xbd, 0x2b, 0xbc, 0x25, 0x3e,
  0xa4, 0x17, 0x89, 0xbd, 0xa9, 0x64, 0xb7, 0x3e, 0x2d, 0x2a, 0x47, 0x3c,
  0x49, 0x1c, 0x39, 0xbe, 0x7a, 0xb6, 0xac, 0xbc, 0x72, 0x35, 0xc6, 0xbd,
  0x47, 0xcf, 0x4c, 0xbd, 0x5c, 0xc6, 0x65, 0xbd, 0x00, 0xc5, 0x7d, 0x3d,
  0x0d, 0x66, 0x44, 0xbe, 0xfb, 0x12, 0x18, 0xbe, 0xf7, 0x3a, 0xf1, 0xbd,
  0xa9, 0xf6, 0x23, 0x3e, 0x87, 0xfa, 0x96, 0xbd, 0xeb, 0xc6, 0x14, 0x3e,
  0xa8, 0xeb, 0x19, 0xbd, 0x77, 0x54, 0xda, 0xbd, 0xef, 0x22, 0x80, 0x3d,
  0xf4, 0x1b, 0x87, 0xbd, 0x13, 0x47, 0xaf, 0x3d, 0xe7, 0x10, 0xa3, 0xbd,
  0x53, 0x84, 0x2c, 0xbe, 0xfb, 0x35, 0xbf, 0x3e, 0xb6, 0xa4, 0xf7, 0x3d,
  0x92, 0xde, 0x2b, 0x3e, 0xb9, 0xb9, 0x90, 0x3d, 0xfa, 0x3a, 0x37, 0x3e,
  0xee, 0x3c, 0xba, 0x3d, 0x78, 0x60, 0x1d, 0x3e, 0x03, 0x70, 0x8d, 0xbd,
  0xb9, 0xbc, 0xd9, 0xbc, 0x24, 0x39, 0xe7, 0x3d, 0x9d, 0xf2, 0x22, 0xbe,
  0x20, 0xee, 0x58, 0x3c, 0x3a, 0x35, 0x0e, 0xbe, 0xe0, 0x7d, 0x63, 0x3d,
  0xa7, 0xd9, 0xf8, 0x3d, 0x34, 0x42, 0x42, 0xbd, 0x27, 0x7e, 0x1b, 0xbe,
  0x25, 0xd7, 0xa6, 0x3b, 0x4c, 0x0d, 0x03, 0x3e, 0x87, 0x44, 0xca, 0xbd,
  0x59, 0xcc, 0x35, 0x3e, 0x68, 0xb6, 0xba, 0xbd, 0x7f, 0x82, 0x1c, 0xbe,
  0x7e, 0xfd, 0xa9, 0x3c, 0xc8, 0x96, 0x80, 0xbd, 0xd5, 0x3c, 0x9f, 0x3d,
  0x7c, 0x73, 0xb7, 0xbd, 0x32, 0xaa, 0xdf, 0xbc, 0x2d, 0xcf, 0x19, 0xbe,
  0x33, 0xb9, 0xc8, 0x3d, 0x94, 0xa2, 0x0c, 0x3e, 0x90, 0xb6, 0xdb, 0x3d,
  0x1f, 0x32, 0x4c, 0xbc, 0x1e, 0x30, 0x6f, 0x3d, 0xd3, 0x7b, 0x30, 0xbd,
  0x08, 0xc2, 0x07, 0xbb, 0x78, 0x9c, 0x87, 0x3c, 0x68, 0x67, 0xf0, 0xbb,
  0x42, 0x4b, 0x71, 0xbd, 0xb7, 0xb3, 0x33, 0x3e, 0x1e, 0x89, 0x19, 0xbd,
  0x67, 0x09, 0x6d, 0xbd, 0xe5, 0x5c, 0x39, 0xbd, 0x80, 0x83, 0x4b, 0x3e,
  0x82, 0xb9, 0x8e, 0x3e, 0xa6, 0xca, 0x4c, 0xbe, 0x31, 0xaa, 0x10, 0xbe,
  0x84, 0xb8, 0xff, 0x3d, 0x7a, 0xfa, 0xff, 0xff, 0x04, 0x00, 0x00, 0x00,
  0x08, 0x00, 0x00, 0x00, 0xff, 0xff, 0xff, 0xff, 0xb4, 0x00, 0x00, 0x00,
  0x8e, 0xfa, 0xff, 0xff, 0x04, 0x00, 0x00, 0x00, 0x0c, 0x00, 0x00, 0x00,
  0x02, 0x04, 0x46, 0x3d, 0x76, 0xd2, 0xd3, 0x3d, 0x4a, 0xb7, 0x1d, 0xbe,
  0xa6, 0xfa, 0xff, 0xff, 0x04, 0x00, 0x00, 0x00, 0x28, 0x00, 0x00, 0x00,
  0xb3, 0x8d, 0xfe, 0x3d, 0x55, 0x1d, 0x42, 0x3e, 0x0e, 0x0e, 0x1c, 0x3e,
  0x7d, 0xb0, 0x86, 0xbd, 0x64, 0x4d, 0x49, 0x3d, 0xc2, 0xdc, 0x98, 0xbd,
  0x51, 0x57, 0xd7, 0x3c, 0x5f, 0x1c, 0x71, 0xbd, 0x62, 0x10, 0x3a, 0x3e,
  0xf4, 0xcc, 0x22, 0xbd, 0xda, 0xfa, 0xff, 0xff, 0x04, 0x00, 0x00, 0x00,
  0x84, 0x03, 0x00, 0x00, 0x98, 0xed, 0x62, 0xbd, 0x32, 0x35, 0x56, 0x3d,
  0xc0, 0xa2, 0x5a, 0x3e, 0xe7, 0xc4, 0x17, 0x3e, 0x29, 0x2c, 0xe3, 0xbd,
  0x56, 0x72, 0x1d, 0x3e, 0xf4, 0x6e, 0x37, 0x3e, 0xe3, 0x9b, 0xc3, 0xbc,
  0x1f, 0x45, 0x6f, 0xbe, 0xa9, 0xaf, 0x4d, 0x3d, 0x30, 0x1e, 0xf5, 0xbb,
  0xcd, 0x27, 0x97, 0x3c, 0x9f, 0xfe, 0x5f, 0x3e, 0x62, 0x71, 0x33, 0x3e,
  0x27, 0x5d, 0xd6, 0xbc, 0x02, 0x0f, 0x0e, 0xbe, 0xa0, 0x86, 0xc9, 0xbd,
  0xba, 0xef, 0x5d, 0x3e, 0x6b, 0x62, 0x03, 0x3e, 0x13, 0x3d, 0xfd, 0xbb,
  0xb7, 0x0f, 0x6f, 0x3e, 0x0f, 0x63, 0x9b, 0xbd, 0xc9, 0x83, 0xe5, 0x3d,
  0x84, 0x5b, 0x30, 0xbd, 0x32, 0xd7, 0x2b, 0xbe, 0x37, 0xa8, 0x5f, 0x3e,
  0xd2, 0x98, 0x5a, 0x3e, 0x64, 0x80, 0x70, 0x3e, 0x63, 0x66, 0x1e, 0x3e,
  0x4a, 0x3b, 0x40, 0xbc, 0x89, 0x57, 0x0e, 0xbd, 0xa6, 0xfa, 0x8c, 0x3d,
  0xb9, 0x94, 0x83, 0x3e, 0x94, 0xdc, 0x4f, 0xbd, 0xa1, 0x8f, 0x6c, 0xbe,
  0xf3, 0xda, 0x5a, 0xbe, 0xad, 0xae, 0x38, 0xbe, 0x29, 0x83, 0x2e, 0x3e,
  0xbc, 0x3b, 0x27, 0xbe, 0xbe, 0x80, 0x3f, 0x3b, 0x4d, 0x78, 0x13, 0xbd,
  0xb9, 0x1a, 0xdf, 0xbd, 0xa9, 0x33, 0x70, 0xbe, 0x6c, 0x2b, 0x24, 0xbe,
  0xec, 0x8f, 0x30, 0xbd, 0xe2, 0x27, 0x9e, 0x3c, 0x3f, 0x6d, 0xdc, 0xbd,
  0xbd, 0x2a, 0x3e, 0xbd, 0x8d, 0x5c, 0x32, 0xbe, 0x5f, 0x33, 0x65, 0x3e,
  0xb5, 0x2b, 0x22, 0xbd, 0x7b, 0x2b, 0x94, 0x3e, 0xba, 0x10, 0x1f, 0x3e,
  0x11, 0xa4, 0xd7, 0xbd, 0xb3, 0x04, 0xb5, 0x3d, 0xe5, 0x5a, 0x41, 0xbe,
  0xa7, 0x10, 0x75, 0xbc, 0x49, 0xf5, 0x45, 0x3e, 0xda, 0x2e, 0x4f, 0xbe,
  0x0b, 0x21, 0x95, 0xbd, 0x22, 0xf9, 0xdd, 0x3d, 0xf3, 0x30, 0x24, 0xbe,
  0xa4, 0xe5, 0x8b, 0x3e, 0x92, 0x0c, 0x6b, 0xbd, 0x12, 0x1f, 0x77, 0xbe,
  0xc8, 0xa2, 0xc7, 0x3d, 0x35, 0xd5, 0xe5, 0x3d, 0x7c, 0x89, 0xec, 0x3d,
  0x21, 0x91, 0x1d, 0x3c, 0x7b, 0xb9, 0x28, 0xbd, 0xfd, 0xb2, 0x33, 0x3e,
  0x4d, 0xe2, 0x7e, 0x3b, 0xc9, 0x36, 0xac, 0x3e, 0xe9, 0x32, 0x0d, 0xbe,
  0xc2, 0x0e, 0x04, 0xbf, 0x3a, 0x7c, 0xf0, 0xbd, 0x0e, 0x4e, 0x63, 0xbe,
  0x53, 0xdd, 0x01, 0x3f, 0xaf, 0x82, 0x6e, 0xbd, 0x3c, 0xf2, 0xe7, 0x3c,
  0x78, 0xb2, 0x89, 0xbe, 0x76, 0x29, 0x1a, 0x3d, 0xcd, 0xce, 0xac, 0x3e,
  0xeb, 0x61, 0x85, 0x3c, 0x03, 0xf3, 0x0f, 0x3d, 0x8f, 0x34, 0x49, 0x3e,
  0x0c, 0xc9, 0x12, 0x3e, 0x20, 0x34, 0xda, 0x3e, 0x03, 0xe0, 0x17, 0xbe,
  0x8b, 0x5a, 0xbf, 0xbd, 0xdd, 0x81, 0x7d, 0x3e, 0x68, 0xd7, 0x1b, 0x3e,
  0x59, 0xad, 0x31, 0xbe, 0xc8, 0x41, 0x5d, 0x3e, 0xf0, 0xfb, 0xfd, 0x3e,
  0x25, 0xd8, 0x62, 0xbe, 0x44, 0x03, 0xb0, 0xbe, 0x29, 0x4b, 0xfc, 0xbd,
  0x67, 0xbb, 0x2c, 0xbe, 0x6b, 0x8e, 0xe6, 0xbe, 0xdc, 0x70, 0x86, 0xbe,
  0x92, 0xb8, 0xfd, 0x3c, 0xa1, 0x59, 0x5d, 0xbd, 0xa1, 0xa9, 0x55, 0xbd,
  0x65, 0x35, 0xe7, 0x3e, 0x67, 0x40, 0x46, 0x3c, 0xf5, 0xd9, 0x9e, 0x3d,
  0x28, 0x4f, 0x73, 0xbe, 0xc7, 0xbc, 0x38, 0xbd, 0x92, 0xb3, 0xa4, 0xbd,
  0x33, 0x87, 0x14, 0xbe, 0xf0, 0x87, 0xb8, 0xbe, 0xf0, 0xf3, 0x4c, 0xbe,
  0xea, 0xe9, 0x39, 0xbe, 0x16, 0x15, 0x4c, 0x3e, 0xb1, 0x42, 0x71, 0x3e,
  0xa0, 0xdd, 0xf7, 0x3d, 0xa7, 0x46, 0x7e, 0x3d, 0xdc, 0xcd, 0x6b, 0x3e,
  0x3a, 0xc6, 0x68, 0x3e, 0x0a, 0x28, 0x10, 0xbe, 0x72, 0xae, 0x8c, 0x3c,
  0xed, 0xeb, 0x88, 0x3d, 0xf7, 0x02, 0xd9, 0x3d, 0x2e, 0x84, 0x66, 0x3e,
  0x91, 0x08, 0x39, 0xbd, 0xb5, 0x3e, 0x72, 0xbd, 0xb1, 0xd3, 0x12, 0x3e,
  0x06, 0x1b, 0xff, 0xbd, 0xe1, 0x12, 0xe4, 0x3d, 0x2b, 0x04, 0x0c, 0x3e,
  0x46, 0x4d, 0x01, 0x3e, 0x50, 0x19, 0x3a, 0xbe, 0xd9, 0x38, 0x5e, 0x3d,
  0x1c, 0xae, 0xfe, 0xbd, 0x3e, 0x1c, 0x0d, 0xbe, 0xde, 0xef, 0x81, 0xbe,
  0x04, 0x0f, 0xb9, 0xbd, 0x5f, 0xad, 0xc9, 0xbd, 0xeb, 0xdd, 0x73, 0x3e,
  0xcb, 0x73, 0x12, 0xbe, 0x7e, 0x4f, 0x10, 0x3e, 0x29, 0xa8, 0xbb, 0x3d,
  0xbc, 0x1f, 0x0f, 0x3d, 0xc7, 0x36, 0x60, 0xba, 0x81, 0x2b, 0x34, 0xbe,
  0xd3, 0x37, 0x19, 0x3e, 0x08, 0x97, 0x4a, 0xbd, 0xf7, 0xea, 0x4b, 0x3d,
  0x53, 0xd3, 0xa7, 0xbd, 0x9d, 0x85, 0x63, 0xbd, 0xec, 0xe3, 0xde, 0xbd,
  0xfa, 0xd6, 0xb2, 0xbd, 0xd2, 0xc4, 0x25, 0x3e, 0x49, 0x1b, 0x7d, 0xbe,
  0x1a, 0xe3, 0x7c, 0xbe, 0x1a, 0x5c, 0xca, 0x3d, 0xc3, 0x35, 0xcb, 0x3d,
  0xc8, 0x8b, 0xba, 0x3d, 0xad, 0xcf, 0x0f, 0xbe, 0x42, 0x35, 0x78, 0xbe,
  0xbe, 0x23, 0x81, 0xbc, 0x8c, 0x40, 0x82, 0x3d, 0xfc, 0x9a, 0x35, 0xbe,
  0x59, 0x28, 0x3a, 0xbd, 0x8b, 0x0b, 0xa4, 0x3d, 0xf3, 0xc9, 0x55, 0xbd,
  0x42, 0x1a, 0x43, 0x3e, 0x9c, 0xdb, 0x13, 0x3c, 0x9c, 0x64, 0x15, 0x3d,
  0xf2, 0x2a, 0x60, 0xbd, 0x2c, 0x6e, 0x43, 0x3e, 0xcb, 0x5a, 0x4e, 0xbd,
  0xd0, 0x8d, 0x5a, 0x3d, 0xd3, 0x08, 0x8f, 0xbe, 0x09, 0xe1, 0xb3, 0x3d,
  0xf8, 0x29, 0x9c, 0xbc, 0x18, 0x82, 0xf8, 0xbd, 0x8e, 0xf8, 0x91, 0xbd,
  0xb5, 0x2c, 0x6b, 0x3b, 0xba, 0x29, 0xc8, 0xbd, 0x9f, 0x44, 0x34, 0xbe,
  0x37, 0xf9, 0x46, 0xbe, 0x6e, 0x33, 0x9f, 0x3d, 0x45, 0x7d, 0xa1, 0x3e,
  0x48, 0x29, 0x4f, 0x3c, 0xf5, 0x5a, 0x49, 0x3d, 0x1d, 0x34, 0x13, 0xbe,
  0xff, 0xfc, 0xf1, 0x3d, 0x50, 0xef, 0x32, 0xbe, 0x87, 0x47, 0x39, 0x3e,
  0xd0, 0x62, 0xfb, 0x3d, 0x7c, 0x26, 0x77, 0x3e, 0x03, 0xa8, 0x84, 0xbd,
  0x00, 0x8e, 0x92, 0x3e, 0x90, 0x42, 0x26, 0xbe, 0x0d, 0x12, 0x0c, 0x3e,
  0xb6, 0xf0, 0x87, 0x3e, 0x94, 0xc2, 0x86, 0x3e, 0xa3, 0xc8, 0xc8, 0x3e,
  0xa7, 0x1e, 0x2f, 0x3e, 0x36, 0xea, 0xb1, 0xbd, 0x7a, 0x37, 0x4d, 0x3e,
  0x1a, 0x99, 0xbb, 0xbd, 0xa0, 0xa1, 0xf3, 0xbd, 0x57, 0xba, 0x0a, 0xbe,
  0x4f, 0x4c, 0xf0, 0xbd, 0x1a, 0x4d, 0x2f, 0x3e, 0x84, 0xb3, 0x15, 0x3e,
  0x07, 0x64, 0x07, 0xbc, 0x8a, 0x2f, 0x9d, 0x3d, 0xa3, 0xad, 0x31, 0x3d,
  0x46, 0x32, 0x87, 0x3d, 0xef, 0x98, 0x1e, 0x3e, 0x53, 0x89, 0x47, 0x3e,
  0xa8, 0x82, 0x7f, 0xbe, 0x4e, 0xfa, 0x36, 0x3e, 0xa5, 0x47, 0x4a, 0xbe,
  0x1f, 0xe6, 0x3a, 0xbd, 0xcf, 0x21, 0x49, 0xbd, 0xd6, 0x78, 0x34, 0x3c,
  0x72, 0x5d, 0x38, 0xbd, 0x60, 0x43, 0x60, 0x3e, 0xa2, 0x97, 0xd8, 0x3c,
  0x77, 0xb9, 0x0e, 0xbe, 0x6a, 0xfe, 0xff, 0xff, 0x04, 0x00, 0x00, 0x00,
  0xb4, 0x00, 0x00, 0x00, 0x22, 0xac, 0x69, 0xbe, 0xfc, 0xf3, 0xb8, 0x3e,
  0xfd, 0x03, 0x29, 0x3e, 0x7c, 0x2c, 0x8c, 0x3e, 0x6e, 0xee, 0x9c, 0x3e,
  0x02, 0x46, 0x1f, 0x3e, 0x1d, 0x9c, 0x62, 0xbd, 0xef, 0xdf, 0x70, 0xbd,
  0x20, 0xab, 0xf7, 0x3d, 0x60, 0x61, 0x96, 0xbd, 0x85, 0x68, 0x84, 0x3e,
  0x97, 0xd9, 0x1c, 0xbe, 0x2d, 0x68, 0x15, 0x3e, 0x15, 0xf3, 0xad, 0x3e,
  0x23, 0x9c, 0x4b, 0x3e, 0x6c, 0xbe, 0x8a, 0xbe, 0x9a, 0x9b, 0x8c, 0x3e,
  0x34, 0x71, 0x99, 0xbd, 0x14, 0x12, 0xa3, 0x3d, 0xa7, 0x43, 0x6e, 0xbe,
  0x5a, 0x64, 0xfe, 0xbe, 0x72, 0xce, 0x57, 0xbe, 0x9d, 0x0a, 0x8c, 0x3e,
  0xe4, 0xcc, 0xa1, 0x3d, 0x24, 0xdf, 0xa5, 0x3e, 0xef, 0xc1, 0x8a, 0x3e,
  0x32, 0x08, 0x73, 0xbb, 0xad, 0x09, 0x47, 0xbb, 0x9e, 0x38, 0x29, 0xbe,
  0xd9, 0xc4, 0x8e, 0x3c, 0x39, 0xb6, 0x4a, 0xbe, 0x98, 0x14, 0x97, 0xbe,
  0x1f, 0xbc, 0xcf, 0xbc, 0xbc, 0x1b, 0x06, 0xbd, 0x7d, 0x3c, 0x90, 0x3d,
  0x7c, 0xd3, 0x20, 0xbd, 0x7e, 0x72, 0xad, 0xbe, 0x5a, 0x74, 0xf2, 0x3d,
  0x56, 0x02, 0xc9, 0x3d, 0x47, 0x2a, 0x84, 0xbe, 0xb3, 0xdb, 0x83, 0xbc,
  0x84, 0xa3, 0x63, 0x3e, 0xb3, 0x55, 0xa7, 0x3d, 0x85, 0x1c, 0xd6, 0x3e,
  0xb3, 0x44, 0x28, 0xbd, 0x2a, 0xff, 0xff, 0xff, 0x04, 0x00, 0x00, 0x00,
  0x14, 0x00, 0x00, 0x00, 0xd4, 0x25, 0x0b, 0xbd, 0x6e, 0x27, 0xca, 0xbc,
  0x8f, 0xb8, 0x0e, 0xbd, 0xd6, 0xa2, 0x99, 0xbc, 0xd0, 0xde, 0x8e, 0xbd,
  0x4a, 0xff, 0xff, 0xff, 0x04, 0x00, 0x00, 0x00, 0x14, 0x00, 0x00, 0x00,
  0xc1, 0x58, 0x70, 0xbc, 0x6f, 0xfd, 0x81, 0xbd, 0x36, 0x52, 0x2d, 0xbd,
  0x9e, 0x84, 0x2c, 0xbc, 0x24, 0xbc, 0xd7, 0xbc, 0xac, 0xf5, 0xff, 0xff,
  0xb0, 0xf5, 0xff, 0xff, 0x0f, 0x00, 0x00, 0x00, 0x4d, 0x4c, 0x49, 0x52,
  0x20, 0x43, 0x6f, 0x6e, 0x76, 0x65, 0x72, 0x74, 0x65, 0x64, 0x2e, 0x00,
  0x01, 0x00, 0x00, 0x00, 0x14, 0x00, 0x00, 0x00, 0x00, 0x00, 0x0e, 0x00,
  0x18, 0x00, 0x14, 0x00, 0x10, 0x00, 0x0c, 0x00, 0x08, 0x00, 0x04, 0x00,
  0x0e, 0x00, 0x00, 0x00, 0x14, 0x00, 0x00, 0x00, 0x1c, 0x00, 0x00, 0x00,
  0x54, 0x02, 0x00, 0x00, 0x58, 0x02, 0x00, 0x00, 0x5c, 0x02, 0x00, 0x00,
  0x04, 0x00, 0x00, 0x00, 0x6d, 0x61, 0x69, 0x6e, 0x00, 0x00, 0x00, 0x00,
  0x08, 0x00, 0x00, 0x00, 0xec, 0x01, 0x00, 0x00, 0x88, 0x01, 0x00, 0x00,
  0x34, 0x01, 0x00, 0x00, 0xf0, 0x00, 0x00, 0x00, 0xc8, 0x00, 0x00, 0x00,
  0x78, 0x00, 0x00, 0x00, 0x40, 0x00, 0x00, 0x00, 0x04, 0x00, 0x00, 0x00,
  0xa2, 0xfe, 0xff, 0xff, 0x1c, 0x00, 0x00, 0x00, 0x00, 0x00, 0x00, 0x09,
  0x1c, 0x00, 0x00, 0x00, 0x20, 0x00, 0x00, 0x00, 0x04, 0x00, 0x00, 0x00,
  0x00, 0x00, 0x06, 0x00, 0x08, 0x00, 0x04, 0x00, 0x06, 0x00, 0x00, 0x00,
  0x00, 0x00, 0x80, 0x3f, 0x01, 0x00, 0x00, 0x00, 0x11, 0x00, 0x00, 0x00,
  0x01, 0x00, 0x00, 0x00, 0x10, 0x00, 0x00, 0x00, 0xda, 0xfe, 0xff, 0xff,
  0x14, 0x00, 0x00, 0x00, 0x00, 0x00, 0x00, 0x08, 0x10, 0x00, 0x00, 0x00,
  0x14, 0x00, 0x00, 0x00, 0x03, 0x00, 0x00, 0x00, 0x78, 0xf6, 0xff, 0xff,
  0x01, 0x00, 0x00, 0x00, 0x10, 0x00, 0x00, 0x00, 0x03, 0x00, 0x00, 0x00,
  0x0f, 0x00, 0x00, 0x00, 0x09, 0x00, 0x00, 0x00, 0x06, 0x00, 0x00, 0x00,
  0x0e, 0xff, 0xff, 0xff, 0x1c, 0x00, 0x00, 0x00, 0x00, 0x00, 0x00, 0x08,
  0x1c, 0x00, 0x00, 0x00, 0x20, 0x00, 0x00, 0x00, 0x03, 0x00, 0x00, 0x00,
  0x00, 0x00, 0x06, 0x00, 0x08, 0x00, 0x07, 0x00, 0x06, 0x00, 0x00, 0x00,
  0x00, 0x00, 0x00, 0x01, 0x01, 0x00, 0x00, 0x00, 0x0f, 0x00, 0x00, 0x00,
  0x03, 0x00, 0x00, 0x00, 0x0e, 0x00, 0x00, 0x00, 0x08, 0x00, 0x00, 0x00,
  0x05, 0x00, 0x00, 0x00, 0x00, 0x00, 0x0a, 0x00, 0x10, 0x00, 0x0c, 0x00,
  0x08, 0x00, 0x04, 0x00, 0x0a, 0x00, 0x00, 0x00, 0x0c, 0x00, 0x00, 0x00,
  0x10, 0x00, 0x00, 0x00, 0x02, 0x00, 0x00, 0x00, 0x01, 0x00, 0x00, 0x00,
  0x0e, 0x00, 0x00, 0x00, 0x02, 0x00, 0x00, 0x00, 0x0d, 0x00, 0x00, 0x00,
  0x07, 0x00, 0x00, 0x00, 0x7e, 0xff, 0xff, 0xff, 0x14, 0x00, 0x00, 0x00,
  0x00, 0x00, 0x00, 0x05, 0x24, 0x00, 0x00, 0x00, 0x28, 0x00, 0x00, 0x00,
  0x01, 0x00, 0x00, 0x00, 0x6e, 0xff, 0xff, 0xff, 0x02, 0x00, 0x00, 0x00,
  0x02, 0x00, 0x00, 0x00, 0x02, 0x00, 0x00, 0x00, 0x02, 0x00, 0x00, 0x00,
  0x00, 0x00, 0x00, 0x01, 0x01, 0x00, 0x00, 0x00, 0x0d, 0x00, 0x00, 0x00,
  0x01, 0x00, 0x00, 0x00, 0x0c, 0x00, 0x00, 0x00, 0x5e, 0xff, 0xff, 0xff,
  0x10, 0x00, 0x00, 0x00, 0x00, 0x00, 0x00, 0x01, 0x1c, 0x00, 0x00, 0x00,
  0x20, 0x00, 0x00, 0x00, 0x50, 0xff, 0xff, 0xff, 0x00, 0x00, 0x00, 0x01,
  0x01, 0x00, 0x00, 0x00, 0x01, 0x00, 0x00, 0x00, 0x00, 0x00, 0x00, 0x01,
  0x01, 0x00, 0x00, 0x00, 0x0c, 0x00, 0x00, 0x00, 0x03, 0x00, 0x00, 0x00,
  0x0b, 0x00, 0x00, 0x00, 0x04, 0x00, 0x00, 0x00, 0x02, 0x00, 0x00, 0x00,
  0x00, 0x00, 0x0e, 0x00, 0x1a, 0x00, 0x14, 0x00, 0x10, 0x00, 0x0c, 0x00,
  0x0b, 0x00, 0x04, 0x00, 0x0e, 0x00, 0x00, 0x00, 0x24, 0x00, 0x00, 0x00,
  0x00, 0x00, 0x00, 0x05, 0x34, 0x00, 0x00, 0x00, 0x38, 0x00, 0x00, 0x00,
  0x01, 0x00, 0x00, 0x00, 0x00, 0x00, 0x0e, 0x00, 0x18, 0x00, 0x17, 0x00,
  0x10, 0x00, 0x0c, 0x00, 0x08, 0x00, 0x04, 0x00, 0x0e, 0x00, 0x00, 0x00,
  0x02, 0x00, 0x00, 0x00, 0x02, 0x00, 0x00, 0x00, 0x02, 0x00, 0x00, 0x00,
  0x02, 0x00, 0x00, 0x00, 0x00, 0x00, 0x00, 0x01, 0x01, 0x00, 0x00, 0x00,
  0x0b, 0x00, 0x00, 0x00, 0x01, 0x00, 0x00, 0x00, 0x0a, 0x00, 0x00, 0x00,
  0x00, 0x00, 0x0e, 0x00, 0x14, 0x00, 0x00, 0x00, 0x10, 0x00, 0x0c, 0x00,
  0x0b, 0x00, 0x04, 0x00, 0x0e, 0x00, 0x00, 0x00, 0x1c, 0x00, 0x00, 0x00,
  0x00, 0x00, 0x00, 0x01, 0x28, 0x00, 0x00, 0x00, 0x2c, 0x00, 0x00, 0x00,
  0x0c, 0x00, 0x14, 0x00, 0x13, 0x00, 0x0c, 0x00, 0x08, 0x00, 0x07, 0x00,
  0x0c, 0x00, 0x00, 0x00, 0x00, 0x00, 0x00, 0x01, 0x01, 0x00, 0x00, 0x00,
  0x01, 0x00, 0x00, 0x00, 0x00, 0x00, 0x00, 0x01, 0x01, 0x00, 0x00, 0x00,
  0x0a, 0x00, 0x00, 0x00, 0x03, 0x00, 0x00, 0x00, 0x00, 0x00, 0x00, 0x00,
  0x03, 0x00, 0x00, 0x00, 0x01, 0x00, 0x00, 0x00, 0x01, 0x00, 0x00, 0x00,
  0x11, 0x00, 0x00, 0x00, 0x01, 0x00, 0x00, 0x00, 0x00, 0x00, 0x00, 0x00,
  0x12, 0x00, 0x00, 0x00, 0x7c, 0x07, 0x00, 0x00, 0x0c, 0x07, 0x00, 0x00,
  0x9c, 0x06, 0x00, 0x00, 0x48, 0x06, 0x00, 0x00, 0xf4, 0x05, 0x00, 0x00,
  0xa0, 0x05, 0x00, 0x00, 0x48, 0x05, 0x00, 0x00, 0xfc, 0x04, 0x00, 0x00,
  0x9c, 0x04, 0x00, 0x00, 0x50, 0x04, 0x00, 0x00, 0x70, 0x03, 0x00, 0x00,
  0xfc, 0x02, 0x00, 0x00, 0x30, 0x02, 0x00, 0x00, 0xbc, 0x01, 0x00, 0x00,
  0x60, 0x01, 0x00, 0x00, 0xd8, 0x00, 0x00, 0x00, 0x60, 0x00, 0x00, 0x00,
  0x04, 0x00, 0x00, 0x00, 0xe2, 0xf8, 0xff, 0xff, 0x00, 0x00, 0x00, 0x01,
  0x14, 0x00, 0x00, 0x00, 0x1c, 0x00, 0x00, 0x00, 0x1c, 0x00, 0x00, 0x00,
  0x12, 0x00, 0x00, 0x00, 0x34, 0x00, 0x00, 0x00, 0x02, 0x00, 0x00, 0x00,
  0xff, 0xff, 0xff, 0xff, 0x03, 0x00, 0x00, 0x00, 0xc4, 0xf8, 0xff, 0xff,
  0x19, 0x00, 0x00, 0x00, 0x53, 0x74, 0x61, 0x74, 0x65, 0x66, 0x75, 0x6c,
  0x50, 0x61, 0x72, 0x74, 0x69, 0x74, 0x69, 0x6f, 0x6e, 0x65, 0x64, 0x43,
  0x61, 0x6c, 0x6c, 0x3a, 0x30, 0x00, 0x00, 0x00, 0x02, 0x00, 0x00, 0x00,
  0x01, 0x00, 0x00, 0x00, 0x03, 0x00, 0x00, 0x00, 0x3a, 0xf9, 0xff, 0xff,
  0x00, 0x00, 0x00, 0x01, 0x14, 0x00, 0x00, 0x00, 0x1c, 0x00, 0x00, 0x00,
  0x1c, 0x00, 0x00, 0x00, 0x11, 0x00, 0x00, 0x00, 0x50, 0x00, 0x00, 0x00,
  0x02, 0x00, 0x00, 0x00, 0xff, 0xff, 0xff, 0xff, 0x03, 0x00, 0x00, 0x00,
  0x1c, 0xf9, 0xff, 0xff, 0x34, 0x00, 0x00, 0x00, 0x73, 0x65, 0x71, 0x75,
  0x65, 0x6e, 0x74, 0x69, 0x61, 0x6c, 0x2f, 0x64, 0x65, 0x6e, 0x73, 0x65,
  0x5f, 0x31, 0x2f, 0x4d, 0x61, 0x74, 0x4d, 0x75, 0x6c, 0x3b, 0x73, 0x65,
  0x71, 0x75, 0x65, 0x6e, 0x74, 0x69, 0x61, 0x6c, 0x2f, 0x64, 0x65, 0x6e,
  0x73, 0x65, 0x5f, 0x31, 0x2f, 0x42, 0x69, 0x61, 0x73, 0x41, 0x64, 0x64,
  0x00, 0x00, 0x00, 0x00, 0x02, 0x00, 0x00, 0x00, 0x01, 0x00, 0x00, 0x00,
  0x03, 0x00, 0x00, 0x00, 0xae, 0xf9, 0xff, 0xff, 0x00, 0x00, 0x00, 0x01,
  0x14, 0x00, 0x00, 0x00, 0x1c, 0x00, 0x00, 0x00, 0x1c, 0x00, 0x00, 0x00,
  0x10, 0x00, 0x00, 0x00, 0x60, 0x00, 0x00, 0x00, 0x02, 0x00, 0x00, 0x00,
  0xff, 0xff, 0xff, 0xff, 0x0a, 0x00, 0x00, 0x00, 0x90, 0xf9, 0xff, 0xff,
  0x46, 0x00, 0x00, 0x00, 0x73, 0x65, 0x71, 0x75, 0x65, 0x6e, 0x74, 0x69,
  0x61, 0x6c, 0x2f, 0x64, 0x65, 0x6e, 0x73, 0x65, 0x2f, 0x4d, 0x61, 0x74,
  0x4d, 0x75, 0x6c, 0x3b, 0x73, 0x65, 0x71, 0x75, 0x65, 0x6e, 0x74, 0x69,
  0x61, 0x6c, 0x2f, 0x64, 0x65, 0x6e, 0x73, 0x65, 0x2f, 0x52, 0x65, 0x6c,
  0x75, 0x3b, 0x73, 0x65, 0x71, 0x75, 0x65, 0x6e, 0x74, 0x69, 0x61, 0x6c,
  0x2f, 0x64, 0x65, 0x6e, 0x73, 0x65, 0x2f, 0x42, 0x69, 0x61, 0x73, 0x41,
  0x64, 0x64, 0x00, 0x00, 0x02, 0x00, 0x00, 0x00, 0x01, 0x00, 0x00, 0x00,
  0x0a, 0x00, 0x00, 0x00, 0x32, 0xfa, 0xff, 0xff, 0x00, 0x00, 0x00, 0x01,
  0x14, 0x00, 0x00, 0x00, 0x1c, 0x00, 0x00, 0x00, 0x1c, 0x00, 0x00, 0x00,
  0x0f, 0x00, 0x00, 0x00, 0x34, 0x00, 0x00, 0x00, 0x02, 0x00, 0x00, 0x00,
  0xff, 0xff, 0xff, 0xff, 0xb4, 0x00, 0x00, 0x00, 0x14, 0xfa, 0xff, 0xff,
  0x1a, 0x00, 0x00, 0x00, 0x73, 0x65, 0x71, 0x75, 0x65, 0x6e, 0x74, 0x69,
  0x61, 0x6c, 0x2f, 0x66, 0x6c, 0x61, 0x74, 0x74, 0x65, 0x6e, 0x2f, 0x52,
  0x65, 0x73, 0x68, 0x61, 0x70, 0x65, 0x00, 0x00, 0x02, 0x00, 0x00, 0x00,
  0x01, 0x00, 0x00, 0x00, 0xb4, 0x00, 0x00, 0x00, 0x8a, 0xfa, 0xff, 0xff,
  0x00, 0x00, 0x00, 0x01, 0x14, 0x00, 0x00, 0x00, 0x24, 0x00, 0x00, 0x00,
  0x24, 0x00, 0x00, 0x00, 0x0e, 0x00, 0x00, 0x00, 0x44, 0x00, 0x00, 0x00,
  0x04, 0x00, 0x00, 0x00, 0xff, 0xff, 0xff, 0xff, 0x06, 0x00, 0x00, 0x00,
  0x06, 0x00, 0x00, 0x00, 0x05, 0x00, 0x00, 0x00, 0x74, 0xfa, 0xff, 0xff,
  0x22, 0x00, 0x00, 0x00, 0x73, 0x65, 0x71, 0x75, 0x65, 0x6e, 0x74, 0x69,
  0x61, 0x6c, 0x2f, 0x6d, 0x61, 0x78, 0x5f, 0x70, 0x6f, 0x6f, 0x6c, 0x69,
  0x6e, 0x67, 0x32, 0x64, 0x5f, 0x31, 0x2f, 0x4d, 0x61, 0x78, 0x50, 0x6f,
  0x6f, 0x6c, 0x00, 0x00, 0x04, 0x00, 0x00, 0x00, 0x01, 0x00, 0x00, 0x00,
  0x06, 0x00, 0x00, 0x00, 0x06, 0x00, 0x00, 0x00, 0x05, 0x00, 0x00, 0x00,
  0xfa, 0xfa, 0xff, 0xff, 0x00, 0x00, 0x00, 0x01, 0x14, 0x00, 0x00, 0x00,
  0x24, 0x00, 0x00, 0x00, 0x24, 0x00, 0x00, 0x00, 0x0d, 0x00, 0x00, 0x00,
  0x9c, 0x00, 0x00, 0x00, 0x04, 0x00, 0x00, 0x00, 0xff, 0xff, 0xff, 0xff,
  0x0d, 0x00, 0x00, 0x00, 0x0d, 0x00, 0x00, 0x00, 0x05, 0x00, 0x00, 0x00,
  0xe4, 0xfa, 0xff, 0xff, 0x7a, 0x00, 0x00, 0x00, 0x73, 0x65, 0x71, 0x75,
  0x65, 0x6e, 0x74, 0x69, 0x61, 0x6c, 0x2f, 0x63, 0x6f, 0x6e, 0x76, 0x32,
  0x64, 0x5f, 0x31, 0x2f, 0x52, 0x65, 0x6c, 0x75, 0x3b, 0x73, 0x65, 0x71,
  0x75, 0x65, 0x6e, 0x74, 0x69, 0x61, 0x6c, 0x2f, 0x63, 0x6f, 0x6e, 0x76,
  0x32, 0x64, 0x5f, 0x31, 0x2f, 0x42, 0x69, 0x61, 0x73, 0x41, 0x64, 0x64,
  0x3b, 0x73, 0x65, 0x71, 0x75, 0x65, 0x6e, 0x74, 0x69, 0x61, 0x6c, 0x2f,
  0x63, 0x6f, 0x6e, 0x76, 0x32, 0x64, 0x5f, 0x31, 0x2f, 0x43, 0x6f, 0x6e,
  0x76, 0x32, 0x44, 0x3b, 0x73, 0x65, 0x71, 0x75, 0x65, 0x6e, 0x74, 0x69,
  0x61, 0x6c, 0x2f, 0x63, 0x6f, 0x6e, 0x76, 0x32, 0x64, 0x5f, 0x31, 0x2f,
  0x42, 0x69, 0x61, 0x73, 0x41, 0x64, 0x64, 0x2f, 0x52, 0x65, 0x61, 0x64,
  0x56, 0x61, 0x72, 0x69, 0x61, 0x62, 0x6c, 0x65, 0x4f, 0x70, 0x00, 0x00,
  0x04, 0x00, 0x00, 0x00, 0x01, 0x00, 0x00, 0x00, 0x0d, 0x00, 0x00, 0x00,
  0x0d, 0x00, 0x00, 0x00, 0x05, 0x00, 0x00, 0x00, 0xc2, 0xfb, 0xff, 0xff,
  0x00, 0x00, 0x00, 0x01, 0x14, 0x00, 0x00, 0x00, 0x24, 0x00, 0x00, 0x00,
  0x24, 0x00, 0x00, 0x00, 0x0c, 0x00, 0x00, 0x00, 0x44, 0x00, 0x00, 0x00,
  0x04, 0x00, 0x00, 0x00, 0xff, 0xff, 0xff, 0xff, 0x0f, 0x00, 0x00, 0x00,
  0x0f, 0x00, 0x00, 0x00, 0x05, 0x00, 0x00, 0x00, 0xac, 0xfb, 0xff, 0xff,
  0x20, 0x00, 0x00, 0x00, 0x73, 0x65, 0x71, 0x75, 0x65, 0x6e, 0x74, 0x69,
  0x61, 0x6c, 0x2f, 0x6d, 0x61, 0x78, 0x5f, 0x70, 0x6f, 0x6f, 0x6c, 0x69,
  0x6e, 0x67, 0x32, 0x64, 0x2f, 0x4d, 0x61, 0x78, 0x50, 0x6f, 0x6f, 0x6c,
  0x00, 0x00, 0x00, 0x00, 0x04, 0x00, 0x00, 0x00, 0x01, 0x00, 0x00, 0x00,
  0x0f, 0x00, 0x00, 0x00, 0x0f, 0x00, 0x00, 0x00, 0x05, 0x00, 0x00, 0x00,
  0x32, 0xfc, 0xff, 0xff, 0x00, 0x00, 0x00, 0x01, 0x14, 0x00, 0x00, 0x00,
  0x24, 0x00, 0x00, 0x00, 0x24, 0x00, 0x00, 0x00, 0x0b, 0x00, 0x00, 0x00,
  0xb0, 0x00, 0x00, 0x00, 0x04, 0x00, 0x00, 0x00, 0xff, 0xff, 0xff, 0xff,
  0x1e, 0x00, 0x00, 0x00, 0x1e, 0x00, 0x00, 0x00, 0x05, 0x00, 0x00, 0x00,
  0x1c, 0xfc, 0xff, 0xff, 0x8d, 0x00, 0x00, 0x00, 0x73, 0x65, 0x71, 0x75,
  0x65, 0x6e, 0x74, 0x69, 0x61, 0x6c, 0x2f, 0x63, 0x6f, 0x6e, 0x76, 0x32,
  0x64, 0x2f, 0x52, 0x65, 0x6c, 0x75, 0x3b, 0x73, 0x65, 0x71, 0x75, 0x65,
  0x6e, 0x74, 0x69, 0x61, 0x6c, 0x2f, 0x63, 0x6f, 0x6e, 0x76, 0x32, 0x64,
  0x2f, 0x42, 0x69, 0x61, 0x73, 0x41, 0x64, 0x64, 0x3b, 0x73, 0x65, 0x71,
  0x75, 0x65, 0x6e, 0x74, 0x69, 0x61, 0x6c, 0x2f, 0x63, 0x6f, 0x6e, 0x76,
  0x32, 0x64, 0x5f, 0x31, 0x2f, 0x43, 0x6f, 0x6e, 0x76, 0x32, 0x44, 0x3b,
  0x73, 0x65, 0x71, 0x75, 0x65, 0x6e, 0x74, 0x69, 0x61, 0x6c, 0x2f, 0x63,
  0x6f, 0x6e, 0x76, 0x32, 0x64, 0x2f, 0x43, 0x6f, 0x6e, 0x76, 0x32, 0x44,
  0x3b, 0x73, 0x65, 0x71, 0x75, 0x65, 0x6e, 0x74, 0x69, 0x61, 0x6c, 0x2f,
  0x63, 0x6f, 0x6e, 0x76, 0x32, 0x64, 0x2f, 0x42, 0x69, 0x61, 0x73, 0x41,
  0x64, 0x64, 0x2f, 0x52, 0x65, 0x61, 0x64, 0x56, 0x61, 0x72, 0x69, 0x61,
  0x62, 0x6c, 0x65, 0x4f, 0x70, 0x00, 0x00, 0x00, 0x04, 0x00, 0x00, 0x00,
  0x01, 0x00, 0x00, 0x00, 0x1e, 0x00, 0x00, 0x00, 0x1e, 0x00, 0x00, 0x00,
  0x05, 0x00, 0x00, 0x00, 0x7a, 0xfd, 0xff, 0xff, 0x00, 0x00, 0x00, 0x01,
  0x10, 0x00, 0x00, 0x00, 0x10, 0x00, 0x00, 0x00, 0x0a, 0x00, 0x00, 0x00,
  0x28, 0x00, 0x00, 0x00, 0xe0, 0xfc, 0xff, 0xff, 0x19, 0x00, 0x00, 0x00,
  0x73, 0x65, 0x71, 0x75, 0x65, 0x6e, 0x74, 0x69, 0x61, 0x6c, 0x2f, 0x64,
  0x65, 0x6e, 0x73, 0x65, 0x5f, 0x31, 0x2f, 0x4d, 0x61, 0x74, 0x4d, 0x75,
  0x6c, 0x00, 0x00, 0x00, 0x02, 0x00, 0x00, 0x00, 0x03, 0x00, 0x00, 0x00,
  0x0a, 0x00, 0x00, 0x00, 0xc2, 0xfd, 0xff, 0xff, 0x00, 0x00, 0x00, 0x01,
  0x10, 0x00, 0x00, 0x00, 0x10, 0x00, 0x00, 0x00, 0x09, 0x00, 0x00, 0x00,
  0x24, 0x00, 0x00, 0x00, 0x28, 0xfd, 0xff, 0xff, 0x17, 0x00, 0x00, 0x00,
  0x73, 0x65, 0x71, 0x75, 0x65, 0x6e, 0x74, 0x69, 0x61, 0x6c, 0x2f, 0x64,
  0x65, 0x6e, 0x73, 0x65, 0x2f, 0x4d, 0x61, 0x74, 0x4d, 0x75, 0x6c, 0x00,
  0x02, 0x00, 0x00, 0x00, 0x0a, 0x00, 0x00, 0x00, 0xb4, 0x00, 0x00, 0x00,
  0x00, 0x00, 0x16, 0x00, 0x1c, 0x00, 0x18, 0x00, 0x17, 0x00, 0x10, 0x00,
  0x0c, 0x00, 0x08, 0x00, 0x00, 0x00, 0x00, 0x00, 0x00, 0x00, 0x07, 0x00,
  0x16, 0x00, 0x00, 0x00, 0x00, 0x00, 0x00, 0x01, 0x14, 0x00, 0x00, 0x00,
  0x14, 0x00, 0x00, 0x00, 0x08, 0x00, 0x00, 0x00, 0x00, 0x00, 0x00, 0x02,
  0x28, 0x00, 0x00, 0x00, 0x88, 0xfd, 0xff, 0xff, 0x18, 0x00, 0x00, 0x00,
  0x73, 0x65, 0x71, 0x75, 0x65, 0x6e, 0x74, 0x69, 0x61, 0x6c, 0x2f, 0x66,
  0x6c, 0x61, 0x74, 0x74, 0x65, 0x6e, 0x2f, 0x43, 0x6f, 0x6e, 0x73, 0x74,
  0x00, 0x00, 0x00, 0x00, 0x01, 0x00, 0x00, 0x00, 0x02, 0x00, 0x00, 0x00,
  0x66, 0xfe, 0xff, 0xff, 0x00, 0x00, 0x00, 0x01, 0x10, 0x00, 0x00, 0x00,
  0x10, 0x00, 0x00, 0x00, 0x07, 0x00, 0x00, 0x00, 0x38, 0x00, 0x00, 0x00,
  0xcc, 0xfd, 0xff, 0xff, 0x29, 0x00, 0x00, 0x00, 0x73, 0x65, 0x71, 0x75,
  0x65, 0x6e, 0x74, 0x69, 0x61, 0x6c, 0x2f, 0x64, 0x65, 0x6e, 0x73, 0x65,
  0x5f, 0x31, 0x2f, 0x42, 0x69, 0x61, 0x73, 0x41, 0x64, 0x64, 0x2f, 0x52,
  0x65, 0x61, 0x64, 0x56, 0x61, 0x72, 0x69, 0x61, 0x62, 0x6c, 0x65, 0x4f,
  0x70, 0x00, 0x00, 0x00, 0x01, 0x00, 0x00, 0x00, 0x03, 0x00, 0x00, 0x00,
  0xba, 0xfe, 0xff, 0xff, 0x00, 0x00, 0x00, 0x01, 0x10, 0x00, 0x00, 0x00,
  0x10, 0x00, 0x00, 0x00, 0x06, 0x00, 0x00, 0x00, 0x34, 0x00, 0x00, 0x00,
  0x20, 0xfe, 0xff, 0xff, 0x27, 0x00, 0x00, 0x00, 0x73, 0x65, 0x71, 0x75,
  0x65, 0x6e, 0x74, 0x69, 0x61, 0x6c, 0x2f, 0x64, 0x65, 0x6e, 0x73, 0x65,
  0x2f, 0x42, 0x69, 0x61, 0x73, 0x41, 0x64, 0x64, 0x2f, 0x52, 0x65, 0x61,
  0x64, 0x56, 0x61, 0x72, 0x69, 0x61, 0x62, 0x6c, 0x65, 0x4f, 0x70, 0x00,
  0x01, 0x00, 0x00, 0x00, 0x0a, 0x00, 0x00, 0x00, 0x0a, 0xff, 0xff, 0xff,
  0x00, 0x00, 0x00, 0x01, 0x10, 0x00, 0x00, 0x00, 0x10, 0x00, 0x00, 0x00,
  0x05, 0x00, 0x00, 0x00, 0x28, 0x00, 0x00, 0x00, 0x70, 0xfe, 0xff, 0xff,
  0x1a, 0x00, 0x00, 0x00, 0x73, 0x65, 0x71, 0x75, 0x65, 0x6e, 0x74, 0x69,
  0x61, 0x6c, 0x2f, 0x63, 0x6f, 0x6e, 0x76, 0x32, 0x64, 0x5f, 0x31, 0x2f,
  0x43, 0x6f, 0x6e, 0x76, 0x32, 0x44, 0x00, 0x00, 0x04, 0x00, 0x00, 0x00,
  0x05, 0x00, 0x00, 0x00, 0x03, 0x00, 0x00, 0x00, 0x03, 0x00, 0x00, 0x00,
  0x05, 0x00, 0x00, 0x00, 0x5a, 0xff, 0xff, 0xff, 0x00, 0x00, 0x00, 0x01,
  0x10, 0x00, 0x00, 0x00, 0x10, 0x00, 0x00, 0x00, 0x04, 0x00, 0x00, 0x00,
  0x28, 0x00, 0x00, 0x00, 0xc0, 0xfe, 0xff, 0xff, 0x18, 0x00, 0x00, 0x00,
  0x73, 0x65, 0x71, 0x75, 0x65, 0x6e, 0x74, 0x69, 0x61, 0x6c, 0x2f, 0x63,
  0x6f, 0x6e, 0x76, 0x32, 0x64, 0x2f, 0x43, 0x6f, 0x6e, 0x76, 0x32, 0x44,
  0x00, 0x00, 0x00, 0x00, 0x04, 0x00, 0x00, 0x00, 0x05, 0x00, 0x00, 0x00,
  0x03, 0x00, 0x00, 0x00, 0x03, 0x00, 0x00, 0x00, 0x01, 0x00, 0x00, 0x00,
  0xaa, 0xff, 0xff, 0xff, 0x00, 0x00, 0x00, 0x01, 0x10, 0x00, 0x00, 0x00,
  0x10, 0x00, 0x00, 0x00, 0x03, 0x00, 0x00, 0x00, 0x38, 0x00, 0x00, 0x00,
  0x10, 0xff, 0xff, 0xff, 0x2a, 0x00, 0x00, 0x00, 0x73, 0x65, 0x71, 0x75,
  0x65, 0x6e, 0x74, 0x69, 0x61, 0x6c, 0x2f, 0x63, 0x6f, 0x6e, 0x76, 0x32,
  0x64, 0x5f, 0x31, 0x2f, 0x42, 0x69, 0x61, 0x73, 0x41, 0x64, 0x64, 0x2f,
  0x52, 0x65, 0x61, 0x64, 0x56, 0x61, 0x72, 0x69, 0x61, 0x62, 0x6c, 0x65,
  0x4f, 0x70, 0x00, 0x00, 0x01, 0x00, 0x00, 0x00, 0x05, 0x00, 0x00, 0x00,
  0x00, 0x00, 0x16, 0x00, 0x18, 0x00, 0x14, 0x00, 0x00, 0x00, 0x10, 0x00,
  0x0c, 0x00, 0x08, 0x00, 0x00, 0x00, 0x00, 0x00, 0x00, 0x00, 0x07, 0x00,
  0x16, 0x00, 0x00, 0x00, 0x00, 0x00, 0x00, 0x01, 0x10, 0x00, 0x00, 0x00,
  0x10, 0x00, 0x00, 0x00, 0x02, 0x00, 0x00, 0x00, 0x38, 0x00, 0x00, 0x00,
  0x7c, 0xff, 0xff, 0xff, 0x28, 0x00, 0x00, 0x00, 0x73, 0x65, 0x71, 0x75,
  0x65, 0x6e, 0x74, 0x69, 0x61, 0x6c, 0x2f, 0x63, 0x6f, 0x6e, 0x76, 0x32,
  0x64, 0x2f, 0x42, 0x69, 0x61, 0x73, 0x41, 0x64, 0x64, 0x2f, 0x52, 0x65,
  0x61, 0x64, 0x56, 0x61, 0x72, 0x69, 0x61, 0x62, 0x6c, 0x65, 0x4f, 0x70,
  0x00, 0x00, 0x00, 0x00, 0x01, 0x00, 0x00, 0x00, 0x05, 0x00, 0x00, 0x00,
  0x00, 0x00, 0x16, 0x00, 0x1c, 0x00, 0x18, 0x00, 0x00, 0x00, 0x14, 0x00,
  0x10, 0x00, 0x0c, 0x00, 0x00, 0x00, 0x00, 0x00, 0x08, 0x00, 0x07, 0x00,
  0x16, 0x00, 0x00, 0x00, 0x00, 0x00, 0x00, 0x01, 0x14, 0x00, 0x00, 0x00,
  0x28, 0x00, 0x00, 0x00, 0x28, 0x00, 0x00, 0x00, 0x01, 0x00, 0x00, 0x00,
  0x44, 0x00, 0x00, 0x00, 0x04, 0x00, 0x00, 0x00, 0xff, 0xff, 0xff, 0xff,
  0x20, 0x00, 0x00, 0x00, 0x20, 0x00, 0x00, 0x00, 0x01, 0x00, 0x00, 0x00,
  0x04, 0x00, 0x04, 0x00, 0x04, 0x00, 0x00, 0x00, 0x1e, 0x00, 0x00, 0x00,
  0x73, 0x65, 0x72, 0x76, 0x69, 0x6e, 0x67, 0x5f, 0x64, 0x65, 0x66, 0x61,
  0x75, 0x6c, 0x74, 0x5f, 0x63, 0x6f, 0x6e, 0x76, 0x32, 0x64, 0x5f, 0x69,
  0x6e, 0x70, 0x75, 0x74, 0x3a, 0x30, 0x00, 0x00, 0x04, 0x00, 0x00, 0x00,
  0x01, 0x00, 0x00, 0x00, 0x20, 0x00, 0x00, 0x00, 0x20, 0x00, 0x00, 0x00,
  0x01, 0x00, 0x00, 0x00, 0x05, 0x00, 0x00, 0x00, 0x50, 0x00, 0x00, 0x00,
  0x34, 0x00, 0x00, 0x00, 0x24, 0x00, 0x00, 0x00, 0x14, 0x00, 0x00, 0x00,
  0x04, 0x00, 0x00, 0x00, 0xd0, 0xff, 0xff, 0xff, 0x19, 0x00, 0x00, 0x00,
  0x00, 0x00, 0x00, 0x19, 0xdc, 0xff, 0xff, 0xff, 0x09, 0x00, 0x00, 0x00,
  0x00, 0x00, 0x00, 0x09, 0xe8, 0xff, 0xff, 0xff, 0x16, 0x00, 0x00, 0x00,
  0x00, 0x00, 0x00, 0x16, 0xf4, 0xff, 0xff, 0xff, 0x11, 0x00, 0x00, 0x00,
  0x00, 0x00, 0x00, 0x11, 0x0c, 0x00, 0x0c, 0x00, 0x0b, 0x00, 0x00, 0x00,
  0x00, 0x00, 0x04, 0x00, 0x0c, 0x00, 0x00, 0x00, 0x03, 0x00, 0x00, 0x00,
  0x00, 0x00, 0x00, 0x03
};

#endif //BBGT_MODEL_H